node {
  name: "inputs"
  op: "Placeholder"
  attr {
    key: "dtype"
    value {
      type: DT_FLOAT
    }
  }
  attr {
    key: "shape"
    value {
      shape {
        dim {
          size: -1
        }
        dim {
          size: 4
        }
      }
    }
  }
}
node {
  name: "drop_out_rate"
  op: "Placeholder"
  attr {
    key: "dtype"
    value {
      type: DT_FLOAT
    }
  }
  attr {
    key: "shape"
    value {
      shape {
        unknown_rank: true
      }
    }
  }
}
node {
  name: "cvs/begin"
  op: "Const"
  attr {
    key: "dtype"
    value {
      type: DT_INT32
    }
  }
  attr {
    key: "value"
    value {
      tensor {
        dtype: DT_INT32
        tensor_shape {
          dim {
            size: 2
          }
        }
        tensor_content: "\000\000\000\000\000\000\000\000"
      }
    }
  }
}
node {
  name: "cvs/size"
  op: "Const"
  attr {
    key: "dtype"
    value {
      type: DT_INT32
    }
  }
  attr {
    key: "value"
    value {
      tensor {
        dtype: DT_INT32
        tensor_shape {
          dim {
            size: 2
          }
        }
        tensor_content: "\377\377\377\377\002\000\000\000"
      }
    }
  }
}
node {
  name: "cvs"
  op: "Slice"
  input: "inputs"
  input: "cvs/begin"
  input: "cvs/size"
  attr {
    key: "Index"
    value {
      type: DT_INT32
    }
  }
  attr {
    key: "T"
    value {
      type: DT_FLOAT
    }
  }
}
node {
  name: "input_shift"
  op: "Const"
  attr {
    key: "dtype"
    value {
      type: DT_FLOAT
    }
  }
  attr {
    key: "value"
    value {
      tensor {
        dtype: DT_FLOAT
        tensor_shape {
          dim {
            size: 2
          }
        }
        tensor_content: "\000\000\000\000\000\000\000\000"
      }
    }
  }
}
node {
  name: "input_shift/read"
  op: "Identity"
  input: "input_shift"
  attr {
    key: "T"
    value {
      type: DT_FLOAT
    }
  }
  attr {
    key: "_class"
    value {
      list {
        s: "loc:@input_shift"
      }
    }
  }
}
node {
  name: "input_scale"
  op: "Const"
  attr {
    key: "dtype"
    value {
      type: DT_FLOAT
    }
  }
  attr {
    key: "value"
    value {
      tensor {
        dtype: DT_FLOAT
        tensor_shape {
          dim {
            size: 2
          }
        }
        tensor_content: "\000\000\200?\000\000\200?"
      }
    }
  }
}
node {
  name: "input_scale/read"
  op: "Identity"
  input: "input_scale"
  attr {
    key: "T"
    value {
      type: DT_FLOAT
    }
  }
  attr {
    key: "_class"
    value {
      list {
        s: "loc:@input_scale"
      }
    }
  }
}
node {
  name: "sub_1"
  op: "Sub"
  input: "cvs"
  input: "input_shift/read"
  attr {
    key: "T"
    value {
      type: DT_FLOAT
    }
  }
}
node {
  name: "mul_1"
  op: "Mul"
  input: "sub_1"
  input: "input_scale/read"
  attr {
    key: "T"
    value {
      type: DT_FLOAT
    }
  }
}
node {
  name: "angles/begin"
  op: "Const"
  attr {
    key: "dtype"
    value {
      type: DT_INT32
    }
  }
  attr {
    key: "value"
    value {
      tensor {
        dtype: DT_INT32
        tensor_shape {
          dim {
            size: 2
          }
        }
        tensor_content: "\000\000\000\000\000\000\000\000"
      }
    }
  }
}
node {
  name: "angles/size"
  op: "Const"
  attr {
    key: "dtype"
    value {
      type: DT_INT32
    }
  }
  attr {
    key: "value"
    value {
      tensor {
        dtype: DT_INT32
        tensor_shape {
          dim {
            size: 2
          }
        }
        tensor_content: "\377\377\377\377\002\000\000\000"
      }
    }
  }
}
node {
  name: "angles"
  op: "Slice"
  input: "mul_1"
  input: "angles/begin"
  input: "angles/size"
  attr {
    key: "Index"
    value {
      type: DT_INT32
    }
  }
  attr {
    key: "T"
    value {
      type: DT_FLOAT
    }
  }
}
node {
  name: "dists/begin"
  op: "Const"
  attr {
    key: "dtype"
    value {
      type: DT_INT32
    }
  }
  attr {
    key: "value"
    value {
      tensor {
        dtype: DT_INT32
        tensor_shape {
          dim {
            size: 2
          }
        }
        tensor_content: "\000\000\000\000\002\000\000\000"
      }
    }
  }
}
node {
  name: "dists/size"
  op: "Const"
  attr {
    key: "dtype"
    value {
      type: DT_INT32
    }
  }
  attr {
    key: "value"
    value {
      tensor {
        dtype: DT_INT32
        tensor_shape {
          dim {
            size: 2
          }
        }
        tensor_content: "\377\377\377\377\000\000\000\000"
      }
    }
  }
}
node {
  name: "dists"
  op: "Slice"
  input: "mul_1"
  input: "dists/begin"
  input: "dists/size"
  attr {
    key: "Index"
    value {
      type: DT_INT32
    }
  }
  attr {
    key: "T"
    value {
      type: DT_FLOAT
    }
  }
}
node {
  name: "Cos"
  op: "Cos"
  input: "angles"
  attr {
    key: "T"
    value {
      type: DT_FLOAT
    }
  }
}
node {
  name: "Sin"
  op: "Sin"
  input: "angles"
  attr {
    key: "T"
    value {
      type: DT_FLOAT
    }
  }
}
node {
  name: "concat/axis"
  op: "Const"
  attr {
    key: "dtype"
    value {
      type: DT_INT32
    }
  }
  attr {
    key: "value"
    value {
      tensor {
        dtype: DT_INT32
        tensor_shape {
        }
        int_val: 1
      }
    }
  }
}
node {
  name: "concat"
  op: "ConcatV2"
  input: "Cos"
  input: "Sin"
  input: "dists"
  input: "concat/axis"
  attr {
    key: "N"
    value {
      i: 3
    }
  }
  attr {
    key: "T"
    value {
      type: DT_FLOAT
    }
  }
  attr {
    key: "Tidx"
    value {
      type: DT_INT32
    }
  }
}
node {
  name: "layer_0/matrix"
  op: "Const"
  attr {
    key: "dtype"
    value {
      type: DT_FLOAT
    }
  }
  attr {
    key: "value"
    value {
      tensor {
        dtype: DT_FLOAT
        tensor_shape {
          dim {
            size: 4
          }
          dim {
            size: 200
          }
        }
        tensor_content: "\361[\335\275z\020\313\275\303C2=\251\272~\276>\237\024=G\362\240=\007\222u\276\003pq\276Z\324\225\2751\207/\274\253c\370<\224 )\276!\2259\2756K\026<\202\225\214\275%\356\254\275\n\270_=Q]\205\276c/\232=\005{<\273\007K\267\274\2336\030\276\201\365\307\274\320%/=\376\324\006\273n\313\n\275\0210\265\275\222\230Q=\346\000\201\275F\223>=\017KS\276:\347\273\2751\234i\276\317K\353\275\225\273\260\276\2716\255=\007\3624\276\375\240\025>\343R\375\274)\336F\274\315a)>\256\324->\225\177\n\275\305 \023\275\021C\032=s}N>\367\273e\27571\213=\004\265\317\275\234\226\027=\302\267\032>\246\367\306\274X\236\021\276\003\367%\275\220\260\251\275\215\337\024>\177]\263\275\220\003\032\275XzY>\t\023\260=\t\233\240>EI\271=o\357\024=\256\313\263=\325q^>\361\322\'\275\226j\220>\376\243*>\360x\r\276\231%\277=-\257,\276\022\324&<h\246\203=\013\212x>\212\216\220\275\264\225!\275\0039)\276\202\020\312=\323p\260\275\025\344\251\275\027\266]<E\360\336\273\342\223\241\275\276.X=\361\273[\274\345{*=o>\">)\340\320\275\316\013\303\275{\353\201\276\022\326&\274z\243>\275\307\344k\275\272\266]\275\033#z=\023\225t\2766\262\025<g\323\314\276\254\351\257=\375\221\224\275\200\250M\275B%L=\237w(\277f\024\035\276\340\375i>c:\255>K\n\263\275ver<\252\221\304\275a\300\254\274[\016\205=\217r\321=\000\007\246=V\365\302\274\242\207\232>\345e\000>\310\373R\274\211m[\274\005\326\031\276WT\256\274\244V\330=\321SR=\202\005X=\236\347\315\275\310>\347\275\250\314\334=\374a\364=\223M\277\275\331\030\346\275\0227\003<\t\035@>\206\022\332<>,*=\212u\214>D\210\312<\350s\344\274p[\030\276\224\010\245\275[\243\\\276\331/\306\275T\226\244<\030S\007\276\365;\326\275\226+\325\275\232\221\264\274e\006\250\274X\245p>\243\032\"\276\356\005\277\276\303i\261=G3\261=,b\230\275\372.u>\325+s\276\376\2064\276\206\262\010\275wp\017\275p\273(\276[\tM<\020\3474\276>lK\275\341%\r\276J\312>\2747j\010\276\310\240a>\326^\203\273\334R\035>\022t\212\275X\203S\275\220\365[\276j\2046=\322\227\205=\374\014U:u\330\361:\003\206\274\275\274b\321\274\263~\005\276\331\271\032=\313\r\200=\351T\233>>\335O=T\335\232\275>\276\313\275\2024\020\276Z\316\024\276\363O\370\272\312\267\221>\271\322\001=l\210\326\275oc\345=o^\255\2758i\315=\274S\266=\2521E\276\306B\372\275|\313\001\275\252\361I<\223\036\266<\n\311\025=\035\002\277=\354\333\303=\317\257\223<*\243j\275K\222\\\275\202\r\251;\"\372\004\275/&f=\346Yk>\266\336O\276$\032w\276{J\031\274\033K\'\276)\214\037\276;.\372<\246\314\225\274\023\n\364\275\023\316=\276\314\030\221\274+\2027>x\303P>\305\253\366\272&&\260=\314\r\321;$\275:>\262\004\027\274\255\205=\273\\\342\300>\344\305\325\274\205\207\036>]\221\223:\206\265X\275A\330\002\273q\014D\2767\177\364<1\335\361\275\263,\020=8e\306=\3318:\276\'\332\031\274\355\024\277\274m<\323\275V\255\032=\354\275G\272x\303\342\275\205\353\373:\234Z\273=\214\002N=\0004\030\276\221^\020\276\363\300&\276}\310\t\276\365\016u;M\206P=\240\346\003\273-\306*<\230&\332=\220{\003\276XH\314=x\242$=v$\365=\376\324\005><&G=\303\n\230\274\034\343\003\273C+E>/\255\001>\021\005\272\276\377\'\016=\021~\032>\302e\341=\370S\265\275\010*\345<\333\267\200>\005+\034\276k&G;\007\235>\275\216\272\211<P\221\003=\264\314\337\274\254>~<\"\017\215;##K>\351\245\017\275\212\212\232\274(\3610<\304k\367\274n\026\002>N;X\275:\016j\275B\002|<=\211\257\274\313\306!\2731-&<\333\341[\276X{>\275I\311p\275\215\3579>\352\000\216>\302\270\225=\010\376\272\274\200\220\366=\370\203\210>\017\301\036\277Q\2651>\025\340M=b\027\022\276\241\201\334<\267\257\200<t\242\326\273s\'\342\275\027\010\277;)\372\376\274\0008\335;\005\000+\275\261\034\357\276x\2371\275%\251\005=\210\377\014;\010B\255;_ \324;\376\010b=\343Xy\274\303\377\216\273?#j=Y\305\201\275\225=\202;\217\260\006\275\037\215e=2\316\010=\026w\345=\345\010\344<\302\014\255\2726mw\274)\366|\276>[\002>`\233=<4\240%\276\334V\312=\271\211\343\275XF?>%\"\233;\214M\217\276\016\202\000>\312;\221>\232\343\361:B\271\006<\r\364X\276\377k\235=\235\307&\276\230\315\254\275\361\201\374\273\220\0369\275\330\377\203\276\317\312\351=\025\037\001=\364\334\261\274^L\361\275L\001`=\316\276\252\273#\275!\275\212o\342\274jj\256>s\240<\275y!\037\275\221q8>\302\307L=^\346n=\275U\357;\324\207=>\362\026i\276m<\367<\254c\t\276\363\231^\273\363\251\320\275rj\321=\205!\351=\257j\215\276\374\007\023;h3\324\274\306\364\340:6\302\253\276\0324\232\276\022a\007=%\212\252=\354#4\275\327+a>\206\003\207\276\014\375\374\273Qe\3339\022\025\027\275Kf\'=_\275\371=M\254\000=\004lG\275\t\003U=qG\304<\324\316N>2g\202<$5\242<\235b\233\275\321\0025\276H\226\203\276\201T\223\274\266\257\342=?Z\312=\261\233\215>!\2235=^]\314<t\236==<d.=\265\361\217<\356X\254=NV\274;\375\037\t=G\275\037\276*)D\276D\224\327<\373\010.\273\214\026\303\274\311\177\276\275rx\272\274A\212\232\2768\2143=\241\312\r>\032\\\240<\316\021\321=\221W\200\275\335\223#>\204\005\322\273\\j\006>*?}=\3344i\276\024\306@=\360\213\206=\333n\016=\336\254\306\274\224\275\274\276\364\032(:/\337\021\276\213\201\227\274^\350\217\275\354*\256>f\375\276\275s\020X\276\246\004K\275i~\'=\364\030\221\275Pu\037=\272\237_>\035]*\274\244C\207>\021UY\275i1J\2761i\322\275Y\036\225\275\t\274\335\275\204o{=\004\255\210=K\251<>\357\220D>g\265\233=\347\376f=\202\345\004;5h\242>\013\231>\275|\021\372\273\356\220\272\275\3017\202\275\0242\275\276\0179\244=_+\316\276\360X\366<\263\3171\275\212(\017>\226\021\020\276a\'T\276&n\226=>\241_>d\030I\276\014xx\276^\304r<\272\367\266\274Ah\202\276\256\310\267=\256\006\351\275\022\233!<SQc\274\004\243`\2760\260`\276\231\216\231\274]\273\236\275\362\035\355\275q\r\257\275|\3103=\257\'G>\222D\226\274.i\010\275\305\377\220<^\355W\276r\200H\276\341\363\204\2752\320\246=cU\370\274\306\006&=\300\214\221=o\223$\275\353\341\n\276\216X\351=\007\353P\276\232\250c=\343T%>\201O\220>\366\265I>\207\255~\275\216\315\217\275\302\321\247>\02738\275\362\344=>\013\016!>\tZK\276\222\357\222\275uoL>\273\342\'>\317\327\016=\237\352^\276\320\247[>E1\314\274<\324\350\275\326~\212\276\313\275+\275\216(L\275&D\247=\023_\005>;s\021\276\223\253\354\274\'=\036>\232\n\030>\250A>\276\354{\312\275\301\3016>\302\303\245>\311w*=)l\027<\020\364\203\276\241\354\341\275\022\\c\272\304\240\263\275\363zP=2\017\302<\200\300\361\274\363\225\233>\020LR\276\226\2665=\235[\374=V\025\310=)\256s\276i\313l\274\325u\020>\313\337]=_\267\261\276lG\351\275\235_\340<\350\211\316\275\236\245\212\276\377-\230>\331\360\300\275M\245\026>\205 I\276\256\333\311=\324q\264\275\272\003M>\223\372\276<\233\301+\275\360\3375>3\252\241<U\304P>\r@2\2766]\230=\226\376\362=-Lh>\000Cu=\315\020\302=v\223\225\276=8x=s\251\360<f5\021\273\314\351\301\275\327V\363<\026\331\240\276\221\2159>I\273\262\276\262j\037\276\343 T>\016\337\217\275UR\205\2765h\371\275#9\354\275\305\200\350=\354\3220\276\2751\006>\364\341s=c\370\245=hQ\301<\363\307\360<DuW\276\357F\317\275!\230G\275\257\207\353\275dw\224=\\s\306=(:w\276\262\231\235<\320\n;=\303\313\240=\350D:>0\266N\276\232\266\264=\241\376\214\2759ZS>\302@\235\275U\024a\276\313\376\201>\026T\305=v\027\211><9H\275\2777\200<\303]{=\302\314\342\2749\223s\275>x|\276\234\321\334\273\200>\374=o\025\007;\266G\222<\305\300]\274h\337\t>\365\250\216\273\271\256\251=6d\232\275\010`c\276\322$\003=)8Y\274\251\242\336=\371\324\353=T\326\204\275\347\234O\276\037\262\r>\013\n\211=+y\355=\273>\201=%\2351>l\360d=;\270\005\276\323\222M>\225\365R>*\345\324\275\321\315\234<\261\360\303;\367\266\002=x\002\252=Sc\313\275\372s\303\274R\035u\273\274\316\247\275\352\3736\274>#4\275H\356b>l\233U;\307(\013\276\377y\203\275\240\270 >H\360\353=\342\223[\274\t\354\370=\260\364+=\'t\030>\326E9;E\225\250\275rp,=\214<\261=\332\264\026\276\361\377}\275\013%\214=\232V\367\275\351\030\223>\367F\233<\275\\\344\274\014v\'\276\226\004\233=\372\221\037\275=\315C\276\212O\037\274p\276\262=\231\014\322=\224\3073\276\370\235\260\274\305oD\275\377a\030<\234n\353\273\377\034\024>\225\010\'\276\247@\210=up\253=\373\376\336\2754Z\341;\301.\364<\303$\332:Ts\035>\363\321\372\273c\t\333<\233\357j\276F\325$\276\307\257P\275\244\344\022\276\357\362\235>\355O3\276\240Bt<\235\302t>~\246(=Vp\254<\206\251\307<\231\\I\275\325M\206\275\344r\271\273~M\325\275R\356\370\275\357\005]=\363\004[>^XA>L\316!\275\'\372\322<a^\341;\275\023\277\275\027\363\337=\034)x\275\002N1\275\006\236\250>\205\253b>n\2144\275\353\014E\276Td*>\271vJ=\300-\016\275\3278I\274\2162\211\275;\325o>\352j\314=\'\'\274\275\351\022\245;\277\r\363;\202\233\217\275_x\225\274\036\256O=\332=W\275/\240O:\207\346\204\275\346W\276=b\335\245>}T\365<\010_\213=\223\242\001>\363\341\024\276\331\332\321\275\221\344<<\252?{\274\262\021+\274\223\377\274<\370n\242=\221Qp>\013\004B\274\222\250s=\263Ve\276\371%\226=\013\t@>\377\2647\275\r\216F\276\355\337O\273%l>\276\366V-\276\242}\257=\236n#>\302\360\217=\321\263\030>R\272-\275\217\374\200\274U\272m\2751\224\020>#\034R\276\344V\373=(\337^\276\365/Q=wY\326\273\354\031\206=\210\"9>\332|)>\247\177\003>\241k`=\341\352\312=\353/&\276/\336*\276"
      }
    }
  }
}
node {
  name: "layer_0/matrix/read"
  op: "Identity"
  input: "layer_0/matrix"
  attr {
    key: "T"
    value {
      type: DT_FLOAT
    }
  }
  attr {
    key: "_class"
    value {
      list {
        s: "loc:@layer_0/matrix"
      }
    }
  }
}
node {
  name: "layer_0/bias"
  op: "Const"
  attr {
    key: "dtype"
    value {
      type: DT_FLOAT
    }
  }
  attr {
    key: "value"
    value {
      tensor {
        dtype: DT_FLOAT
        tensor_shape {
          dim {
            size: 200
          }
        }
        tensor_content: "\351\022\304\276\036\336\231>\177q\332\276\310\261D\276\370\013\323?p\222\332\276\211\240\240\277\347j\254>x@U?s]D?\0348\331>\275\032\234\277\234\351\323?i]\333?XS\221\277\177\034e\275\372\304\276\276\213\260!\277bZ\324<\022A(\276\332\350[>\377|R?\211|\266>\255\216\277?5I\262?\024\250\225?\262\355/>\376\246\222=\232 \374>\343\035\004@i\274\230\2763\260\227=\336\334\266\277F\377\301?\333v\323\277Vv\210\275\374\271\252\2761^p?\356M.\277\0002\351>\355r\224\277W\334\327?UC\315\277z_\241\2766\337\270\277\033&\203>\256\030\213>\355\027\235?\252Mw\275\257\271\t?\243\357x\276\202\305\t?\014r\206\275a%+\2771\377\366>\206\262\233\277iu;\277]z\317=M\350R>\033\364\377?ls\272>\242i\226\277\360o\252?l\254\347\276\006\240v?\362\037\276\276|\004\316\277v2\233\276\370@?\276i\013\322;\223\224 \300(+\014?!\321\016@\327\'f9[L\021=N\035\301\276\276\n]?\271\206\347>9\356<\277\010\033\211>\22516?c\370?\277`b\276\274\225W\236\276@E\261\277\263|.\300\020\006\337>T\362\256\277\263\236\314\276TH\314\276xe)?)h\213\277]\303\003?\204L9?\005\204\233\277\231\'\217\276\004\315\361>o\330\032\300l\262\376\276\211\270\277\277\306\332\000>2\351\234>\204\0303\300fN\016?\234\364\022?0\207\371?m\210C\275\262i`\277)\377\240\276r\014\n\277\033\362\235?\026\221]\277\303I\020\277?\020\000\277%\315\366\277\202\231\006\277\220/\014@\255]r\277\350\013\341<{\213\020\276b\311\n<!\256O\276SKg>s\244%?T\250\221\276Z}j\275\271\025\027=\214\235G?\346Im?\270\271\346>V\027\260?\372\205\026\2771\030\250?\230\031\033\300\366o\243\277\225I\344=\316bA\276\243\272\320?\'\255#\276\277\235\323>\316E\021\277\350\030\214\277Td|?@(\023>\367\013\017?\323b\233\277\305\214w\277\375\366\223>\2611n\277\222J.\3008[-\277\251\220\304\274q\013\313<U8=?\366\262\306?\025\307&?r\226\371\275h\3033;\355\354\311\276\315h\253\277C\342\242\277\230\340\334?\316\315\305\277\331H\303\276\227H\313>\216\360<\277=-3>mo\272=\342f\267>\265.L\277\204\276\242\2764q\250\276V\234\306\277\341z3\275\232;\002?OO\261>X4\276\276n\r\200?\253\207\003\277\261E\203>L\263\033\277\245\024\366?`G\017?\327\017C?xo\001\277%\331?\300\332\010\276\277\270\212\204?\271\230\003?O\"\256\276~\r\307?g\034H=\004/N=-rb\276\313\033\274>\376\004\036\277\2448F=\251n~\277!\316F\275(\033s\276"
      }
    }
  }
}
node {
  name: "layer_0/bias/read"
  op: "Identity"
  input: "layer_0/bias"
  attr {
    key: "T"
    value {
      type: DT_FLOAT
    }
  }
  attr {
    key: "_class"
    value {
      list {
        s: "loc:@layer_0/bias"
      }
    }
  }
}
node {
  name: "layer_0/MatMul"
  op: "MatMul"
  input: "concat"
  input: "layer_0/matrix/read"
  attr {
    key: "T"
    value {
      type: DT_FLOAT
    }
  }
  attr {
    key: "transpose_a"
    value {
      b: false
    }
  }
  attr {
    key: "transpose_b"
    value {
      b: false
    }
  }
}
node {
  name: "layer_0/add"
  op: "Add"
  input: "layer_0/MatMul"
  input: "layer_0/bias/read"
  attr {
    key: "T"
    value {
      type: DT_FLOAT
    }
  }
}
node {
  name: "Tanh"
  op: "Tanh"
  input: "layer_0/add"
  attr {
    key: "T"
    value {
      type: DT_FLOAT
    }
  }
}
node {
  name: "dropout/Shape"
  op: "Shape"
  input: "Tanh"
  attr {
    key: "T"
    value {
      type: DT_FLOAT
    }
  }
  attr {
    key: "out_type"
    value {
      type: DT_INT32
    }
  }
}
node {
  name: "dropout/random_uniform/min"
  op: "Const"
  attr {
    key: "dtype"
    value {
      type: DT_FLOAT
    }
  }
  attr {
    key: "value"
    value {
      tensor {
        dtype: DT_FLOAT
        tensor_shape {
        }
        float_val: 0.0
      }
    }
  }
}
node {
  name: "dropout/random_uniform/max"
  op: "Const"
  attr {
    key: "dtype"
    value {
      type: DT_FLOAT
    }
  }
  attr {
    key: "value"
    value {
      tensor {
        dtype: DT_FLOAT
        tensor_shape {
        }
        float_val: 1.0
      }
    }
  }
}
node {
  name: "dropout/random_uniform/RandomUniform"
  op: "RandomUniform"
  input: "dropout/Shape"
  attr {
    key: "T"
    value {
      type: DT_INT32
    }
  }
  attr {
    key: "dtype"
    value {
      type: DT_FLOAT
    }
  }
  attr {
    key: "seed"
    value {
      i: 0
    }
  }
  attr {
    key: "seed2"
    value {
      i: 0
    }
  }
}
node {
  name: "dropout/random_uniform/sub"
  op: "Sub"
  input: "dropout/random_uniform/max"
  input: "dropout/random_uniform/min"
  attr {
    key: "T"
    value {
      type: DT_FLOAT
    }
  }
}
node {
  name: "dropout/random_uniform/mul"
  op: "Mul"
  input: "dropout/random_uniform/RandomUniform"
  input: "dropout/random_uniform/sub"
  attr {
    key: "T"
    value {
      type: DT_FLOAT
    }
  }
}
node {
  name: "dropout/random_uniform"
  op: "Add"
  input: "dropout/random_uniform/mul"
  input: "dropout/random_uniform/min"
  attr {
    key: "T"
    value {
      type: DT_FLOAT
    }
  }
}
node {
  name: "dropout/sub/x"
  op: "Const"
  attr {
    key: "dtype"
    value {
      type: DT_FLOAT
    }
  }
  attr {
    key: "value"
    value {
      tensor {
        dtype: DT_FLOAT
        tensor_shape {
        }
        float_val: 1.0
      }
    }
  }
}
node {
  name: "dropout/sub"
  op: "Sub"
  input: "dropout/sub/x"
  input: "drop_out_rate"
  attr {
    key: "T"
    value {
      type: DT_FLOAT
    }
  }
}
node {
  name: "dropout/truediv/x"
  op: "Const"
  attr {
    key: "dtype"
    value {
      type: DT_FLOAT
    }
  }
  attr {
    key: "value"
    value {
      tensor {
        dtype: DT_FLOAT
        tensor_shape {
        }
        float_val: 1.0
      }
    }
  }
}
node {
  name: "dropout/truediv"
  op: "RealDiv"
  input: "dropout/truediv/x"
  input: "dropout/sub"
  attr {
    key: "T"
    value {
      type: DT_FLOAT
    }
  }
}
node {
  name: "dropout/GreaterEqual"
  op: "GreaterEqual"
  input: "dropout/random_uniform"
  input: "drop_out_rate"
  attr {
    key: "T"
    value {
      type: DT_FLOAT
    }
  }
}
node {
  name: "dropout/mul"
  op: "Mul"
  input: "Tanh"
  input: "dropout/truediv"
  attr {
    key: "T"
    value {
      type: DT_FLOAT
    }
  }
}
node {
  name: "dropout/Cast"
  op: "Cast"
  input: "dropout/GreaterEqual"
  attr {
    key: "DstT"
    value {
      type: DT_FLOAT
    }
  }
  attr {
    key: "SrcT"
    value {
      type: DT_BOOL
    }
  }
  attr {
    key: "Truncate"
    value {
      b: false
    }
  }
}
node {
  name: "dropout/mul_1"
  op: "Mul"
  input: "dropout/mul"
  input: "dropout/Cast"
  attr {
    key: "T"
    value {
      type: DT_FLOAT
    }
  }
}
node {
  name: "layer_1/matrix"
  op: "Const"
  attr {
    key: "dtype"
    value {
      type: DT_FLOAT
    }
  }
  attr {
    key: "value"
    value {
      tensor {
        dtype: DT_FLOAT
        tensor_shape {
          dim {
            size: 200
          }
          dim {
            size: 200
          }
        }
        tensor_content: "\034\262W\275\022\264j\274a3E=\215\212r\275\354Q\205=\340\025\304<\017\364$<\002\216\224=j\350\252\275\317\030\207<^\275\360=\254\333u=m\007\252;W\272C\274\220\323 \276\3173\260\273\026\346l=B\364z=\307a\306<\031\265\326;W\003l=:\377\022<\t\314\353=u\225\317=|\311D\274\251|\307<\333\344\265=W>\027\274B\017\224\275\313\013\334<\023\332\203\274w\242\341=?\213!=\013O\236<|\360\253\274{\270\031=\332%\256\275rlw\275Y\347\020\274S\342\007=b\216\224=\010G\257<:n\216\275\253\303\226;BV2\275\220\347]\275\364g\330\274)\013<\274\207]\373<\220\266\256=c\344\264\274S\366j<\207Q\255\274^\270d=p\033F<B\262\026\275\337\243\225=\'>\265<\267\251\242<\205\245\202=\027\340\354;ib\253\275\243\033\211=#\004\241\275\307\367\036\275\231\001\307;\267\206E=\206h\321=\323+\236=/#M\275\376O5\275:D*=J}8=\203\357\300<\220\024U\274\036\007\n\276hb\234\275\275\236\366\275\025\265\307\275\251z\273=R1\262\274\035_^<7\342\260\275\347\374\277\275\274\326\204\274\3244\001=\224\257\246\274\340\267j=\004\212\307\275O\027\357=H_\350<\260;\207<\036\211\341<\241\367\232\273\305\351\327:JK\272\274\035(U\2758$\023>\371\032\235\275\246H\016=\374\232\212\273\351\366\007\276E\265\000\275\367\330s\275\232=A=\036\357\242\275\274\362\254\273\334*\304\275]\250\230<lx\251=\350;\023=\365V\"<c\261\274=\316@[\275\013P\311<<\264F\275\351A\207=~\256\375;\340!C\274O\325B=\tqS\275\364\t\216\274\341\260\032<\004\356\346\275\244\246\325\274\205f\230\274\336\2269\276i\350\203\275wb\266=y\237]\275Q\031\272\273\354\340\033\275rL\312=\315\232X\275\326\205\211\275V)u=\251\221\327\275hv\360\273\221\031`\275\003g\307\274W\024\272\274[\223|\275\236\260\256\274\334(4=^X\022\275\301[\225\273y\006b<\276\234\330<]\362\\=;D~<\257\250\277<\314\212=\275\262\330\372\275\211\326\202\275\000|M\275\215\202-=\250V\364=E\222\203\274\322)h\2743v\211=\023\206\313<\'\336\037\275\301g\216=x\027\177<\276&\177\274\'V\236\274~-\205\275\031N\006\274\342\275\341\2747\241\272=P4\030\275\345\262\344\274\301\276\371\274-\234\203=M\376?\275\202\005\016\275y-|=\311\243\226\2748\353\216<\224\"\332=\264\265O\275\177\363\013=V:\216\273I\200$\275j\253\271<wf\351\275<\243\276=\023\025~\274\2559\210\274o3\220:\215\334\252<\017\230\302\275!\325\204=t\303\350\275\277\200{\275\017\246s\275\310\315\006\276e\344\022\275\001\330\320<\353&\234\274~(\277\275Z\366\263\2721\007 =]\030\255=`\234\r\274\211\310\t\275X\342\264\274V\207\323;\367\327\375\275s/\034\276t\202\237=\337\304E<U9\024\276t\250\224=\002{\225\273\263rj\275\244\304\222=O\375\266=V\222%=\233l\276<zX\031>\301dQ=\021\017u=k\354\'\275\337\325V<t\030\340\2759+\246=?\013\305\275\005v\212\275\352zi=\247~/\274\311I\261=\\\n\270=\242\376\371\275\227\017\345=\332\275\355;\000y\260\275R\021\230\275\243\262\037\276\031V\257=t\374\351\275Q\371\242=\023\2257\274\277\251\215\275\222\317\261\275\344\311\337\274]\300\275=\370\316\271\274\303\244\t>\211\330\272\275\014\235L=\222f\332=\241\031\307;\360\022\206\275e2\r=\242\014 \275\250\0132\275\034-\"=Z\347\322=c\020\035\274k\000\304=~\221\n\275\322@3=\207\343\254<+\371s\275\352\017\245=\'\220U=\336\343*>}}\003\275\347\245Z\275+d\033\276\357N\020>\200\224\240\274v\257\266\274\263\346\351<\020$\272\274\347y$\275\226\314#;\3447d\274\027m\243=g\024\177:\245\005\260;dEO=s\230u\275\251k\254\275J\363/=\326\315\016\2758\032\217\274$\223M\274\326\275o=\377\265\263=\022\031\007=\377\247W=\306/\223=\252\216y\275\346\204+\274ZA\t\276z\'2>\266\210H=\356\353c\275V\017\307\275\221\016\"\275\315\272\207<f\274\241\275A\340\007\276\031\347\367\275\003\337\255<\2768\315\274\364\212\312\273\324\203\025>\'\003\354\273\217\n\276\275\206`\367\275~\231\243\2750\\5>\2578L\276\370\252\244\275\231\236\013=\207\014d\275\325>\017=l\361}\275\244\234C\275\223\311[\275\260Pz\275\232J\334=pk\202=\374.\302\275HJ@=D=\357<|N\257\274N\302n\275/\363\036\273(`\255=\351\262\250\275\357C\277=\352\030\211=\264\315\233;1\262\222\274\005\266\205\275QK:\276Y>\361\275K\177\326\274\367#\010\276\225\207\000=\260\377\275<\362?\021\275\216\230<\274_\327q\275\332.\005=JXe:x\216\010\276\277\251\005<)\022\324\275F\254D\275\023+\202\275\377\352J=\225\264==\273v!>@\265\031\276j\206h;\3729}\275&\361\350<o\036\014\274\230\314\270\275D\357\212\275\034kw\273\221\304\301\274\273\330\014>\001\3276\274\250M\310:\322\302[\275q\202\352\275\212,\235\274\375T\322=\223\277\000\276\0308\240\274YoS\275\213\2219>\257@\013\276\"\030\313\275\344$,>(\1770\274hT\246=S}b<\313\365j=\303H\321\274\323\223\263=V\362\264;\301\203\033=\355\362\006\276\020;\235<{<o\274\225~L\275\235%\207\275\001|1<\312M\345\274\021\215m\275\352D\272<\364C\014=u(@\273a}\254\274g<K\275%\347\356=ov\203\275P\036\247=\271\014*\273\210\242\016\275[\324\311\274n\325\023\276\234t\344=\224\213,=m\330\315=\346n7<\362\031K\275EN\334\273O0\036\275A[#\275\004\032\351<\212\375\210\275S\354\005=\302\334\315\275\324\242\234\275\301\307\255<{bB=*5\321=\033\330\202\274\300I<=\342!t=\301\342\005\275\376\306\203\275\2742(;\205\354\210\275\352\203\361\274\'\"\034>\263I\026\273\251J\"\274\013\025\030=\020\374\220=\265?z\275\341\262J=\302\244\226<Q.\271\275\321f\244<2\000O\2755o\221<b\212|<!\235\240\274\363/!\275z\251\356;^\274\250\273\345\212P=X\340\006\275\'\022\216\275#o\203=\372\034\332=\321\301?=ND\376\2730~\254<\270\010\226=\333\204{;_\344\'\275L\244_<\210\330\217\274\267\004\271=kw\352=\036\333\242\275\213>\257=L\020v\275\361T\253\274f\2158=}3^\2730\3755\272\242\262v\273\250h\203;!\225\244\275Q7\024:v\206c={_\033\274Os\013=\306\240\036\275\357\014\311;\000\211\017\275\320i\343\274\341\247\306<{\325\372<\335\346\262<}\332\267=\253\375\236\274\234I\';\333RL\275F\271\276\271;\310\030\275\234?\007<\302z =\373\201q=\255\246\271\275j\357\026=\"\002\240\275k\0027=3%\005\275\374B+\273\022r\315=8\236\373<\373\353\021\275P\267\325<\257W\327\275<\016\223<|\266\n\275\262\370-\274\013\306<\275%\230\337\274\355\014\362\274@!\243\273\001\221\223<1\347@\275\317\025Z=\317i\237=\302b\372<\217\266C\2742\322>\275/g\223\273)\014c\275\\\312\372=Y\250V\275X\364<<\266\022\212=|\376\023\2753=\037:\244\201p\274\037\025\304=A\226\031=1B\227=\037?g\275;\237\207\275\007Z\303\275\302|\221\273V=\032\275\277\307h<(\207\\\275x\276\006=sz\374\2749\205a\275\326\253&\273\360\204\246\274\242\256$\274\324\316\377:\200\217\351<B\323\217\275\216\026!\275\220\3524\274\327D#=BK\241\274YH\212=Ca\003>\2517\031\276D\253\375\275\"6\210;\nV\214<\276\224\345<\203\215\014\275\307\026\202\275;\322\225=\237\343\272\275\351P5\275I\323\201\275\220\230\206\2742\264\212=\206\225\254\274\374\232\244\275\035\343\213\275\013\346A\274\214\"`=il7;\026\032\250=\305@\325=Dk\010>\332c/\275\'n\304=[`\003\275\314\246\315=\032\375\372\274T\336x=\\\230\'\275\334H0\275\025\331A=\202\214\254\274\310\036\021=\251\262r\275\355\004\234\275\240\225\n<4O\354\275\256\004\375<\244\341\372\274\357\022\304\275\350e>\275\311 \362<\353N\375<?\013~\275\374\346M\275\262\032\336\275\250\302s\274\177P!\274j\254\r\275\304\204\006>\346\246\306=\206\270\017\276A\317\262\274\216\233E=\277\211\253=\324\037V<H\375\020;\352\310V\275\366s)=\330\034\2579\241\335\335=\267\030L=\317\2348\273\235E\221\275\021\225\322\275\223\253B=\317\344F<\356\363\277<\371\331\221\273\007\323\255<\3264;:\032\216\004=\220{\261\274\372\266C\275\270\227\331\2734\372/<m\304\243=mG\241\2754\253~\273\017\262\005\276\270\313Y\275\374\017\337\274\336Z\310<\026\277\354\273\003\223\302\274j\251\320\275;\004\326=^\307X= \251\241=\212\336\027\275\330t\000\275\004Lg\275\217\204\263<@+\023\275dg\t>o\276f;\322\274\231\275\354\334\r\275\320C\014=\021\250#\272.{\301\275\204Y\025\275\242\205\361<\211\262\351\274\210\354d\275\n\322T\275d\231E\276>I!=d\226g=\222:\262\274\214:\317\275\270\3513\276\220\272\322=K/\327;X\037%<\256\365\226=\323\221X\275\305\032\346\275\302\354\321;\342T\247\274\316\207\237\273\276ju\275\3429\213\275D\350\361\274$2\225\274[\336\203\275/\3611=\314\2058=\344\276\355\274\037$$<c\207D\274\'\353\235<\r\360><\250\256\242=\235_\">*\005\244=\226\234\033\274\ra]<\273\301\217=\336\017\200=\355\210{<\213\222\013\275\307\016\351=g\201\304={c\355\273\267\255C=\341\346\003\275\340\327\021\276O\206\234=q\304\303=tB8\276\210\360D>\307\214*\275z\3070\275\\C\243<\212%\304=\367\261j=\245\316Z>\224\333x\275\375\007r\275\212\366\002=\231 \366<\363!\341\275\340\321\333\274W\201~<\321\026t\2746\ra<\343\356\034=\024\216\235\275\261k\206\275\016\303r\275\330A\267\275\003wX=\035\377==\341\233\233\274\032^r<N\347\214=\337n\304\274\330<\362\275_\353\310<\254I\230=\217x\246\272}{\216=\323x\353\275\244\265\n>f\241\250<yi\333=\310+\216\275\"\024\315\275\010\357\267\275r\326\370\274\306\263\376\274\216\241\177<\323\0051<\030\027\003>\303\204\246=l\234+;\256\337\304<\325\207\257\275\273\025\223\275\302\265<=\245\243\243<\272\343\007>v\006\211\272\000|\035\276\231?\215=\330\005\243=t\275\037\275\266\271Z\274\300\334F<\260_\325\272\177\212\213\275(\367\206\275\r\261L=}\276\241=\327ws\275s\245]\273?\211\361\275\004\232\221\274\362\237)<\354\006I<\212\300\020\2752U\227=\034-\337\275{\333\330\273\347{c\276\335\220\351=\215\301\203=\351l\\\274\350\266G\275\353V\312\275\316J0=\320\234P\275g\277K\274\020.\240;*\014\237;o\330\345<\177-\200<\037\325\207\275\221E\235\274\317\332\275\274Ab\004=\034Z\360\2727V\235\275\223\\\357\274\272\370V=%Y\262\274\307\035\205=$\023\325<\002\326u=\332\013\302\275\263\332\232=\272\375P\275\201\340A\275\025\327p\275\362\211\027\275&\367\\<,y\032\275^\302+=\031\300\344\272\023S\301<\335\375\367\273\324\226\221\274\326\341\257=\365Bd=\255y\002<\364e\233\275|c\232\274\023+q=\331?\271=/\\\333\272UN\240:|\324\207\274\310Y\226\275d\243\213=C\204\203\275\314\344\021<X\336\025<\320\233\207\275&\177)\274\307(.=\352\250\230\275\337q\353<\014\024\255\274JT\200=\005\321\241\275\344\370\023\275_\217\236=\304\243*;\251\312\210=dS\002=\244\331E=M\014\224=\346\334\210=\026\375\350\274\215\026\353<\377\205G;1\"g\275\244?M:\210V\352\275\025\005\366=\347\025\276\2751=b\275\273\347\016=\017Y\024=\027\030%\274\343\273\203\275\363|#;T\264\363\272z\306%\275\010[\304=B,V\274p\270t=\005\321\005<\2600\227\275\315\326(;\237\230Z\275\017\350\311=\276\037T=wx\251\275\017\213\266\2759H\014\275\202\034\374\274\n\332\210=\016y\264\274\262\362^=az\236\275\274\273\300\273\333Z\'<\305B\n<\306d\025\275\007\277>=K\316\342\272\271\352`<Z\261\302\275\030t\n\274Z\374\323\275zZ\017\276K\276E\275\341\353\224=(\377k\275ko\255:\212\026\005\275R!\340\273\221\324\\<\232?\360<\277l:=u\330\021=TU)=\367U\303\274F\216\200\274\364\006\346<,\r\272=\207\330\260=t\266i<[\001\235\274\232\346,=U\254S\275\355\262\331<t\230A\273\350\311\356;\334\023g=\302W\354<\356@}<\033\221\356<o%\326<]p\321;?\346\"\275\221\337\333=\n\337\277\273\276\227A\275?\377\203\274\337\254\032=\003\217\327<;\220\271\275\356hB\275\271\263\022=\332\026\370\275B\177%=6<\022<\273\014\264;\262\321\205=\005\265D:\261\025\255\275z\177!\275\007\005o=\377j\306=\374-\230=\214\341B\275\274$-\275\003\026@\274\251 9\275\345\024\372\275\257\237\240\275\222\230\223\275f\214<\275s\242\251\275\215\206\364<\3139\321\274Z\013\243\274\'Q\017=\200;\326\275\002\264\366\272N%\314<\267\307X=\204K!\275\261\357\224\275\320\213\234<\205\227\004>\351\371\301=\017\007%=\236\320\344\274S\000\241\275\362\341\017=\t\263@\275%U\346\274\342Pg\275\024-\355\274\203Cw\275\243)A\275\235\340\235\275\361\3351<\322\244\346=b\351\317\274\261\357C=\364i\215\275D\364\005=[H\306\275\355,\203;\333\354L=\356\242O\275\265\273,\274\375\032\235\274\263\031\006\273Q<\202<\300\325\364;\'\242\\\275\277\375\303<\350O\211\275\330\235\037=\230 \263=\207\037\002=\302@\263\2746\226\034<x\267\241;>\3319\275R\377E\274\313y\246\274\345\211\252\275\241\360\346<[3\271<\3761\372=%\313\346\274!\360W=\361\352#>\':\232=\253\2333=4f(\275\272\351)>x\221\355\275\032\003\223<\241\353\252\274\237\202\341\274\311qG<)\327\016=\320\336\023\274kD\330\275g\203\256\274K\327s=\311\252\307\273+`1=Q\371\241\274\325\305\275\275\230\201;\275\232`\255=\253\"#\276\0259\031\275Z\223\254\273\221\0008<38\010\274B\225\026\276\240[\330<\344\360\220<t\245\010>\331\320W=;\314`\276I\377\037\275\001\313\323\2758\215)=uDU\273\372\312\332=\303\026\317<\367\252z<`\320o\273\364ic\275\245#\342;\004\211\267<nN\323\275J1\204<\360B\233\2747%\216;\254R\276<\245\271&\274\307\317\336\275\311\023\311\274{%R\275o5E<\023\273\n>\366\203\033\275\332\241R=\245\3476\275\351!\203\275\215\260\201\275\335D\t\276I\305\217=\330\233\037=hXP<F\302\005\276\361\343\227\273\370\254\367=\273\321\032\276\006\332\004=\357\215~=\235\216\005=Vn@\273\343\245\217\273n@h\275\215\202 ;\310\014\245\275\355\263\247=\322\314\252<\273\r_<\273\017e=HM\035\275\221\n\240=\374w\201<\313<\215\275\234K=\273k\r\311::\243+\275$J\002>\255\225\213\275\212\352\317\275ya\273\275[\030\334;\253%A\275\242\361\264=\302\tN=\234z\375\274\202W\201==\371\022>\322\352\323=\032\300\320\275\305\317;<.G\211\275\220\023\375:m\313}\275\376\337\013=\345\345\017=,\267(\274\331\002U\274\333\261\337=.#\227=\233R\201\275\"\240k;\n\311\215<\225\331\245\275\223a\013>\037\366\206<\347<\365=+\005\325=\233\235\244\275\217h\255<+w\024;\251q~\276\261\032}=\326\371\217=\214\353\320=\253E\324;\007\242\t\275VZ\317\274k[\036=\263R}\272\277\232Z\276\352\307\320\275\220f>>\2322\322=f\372\266;\216_\003>\302\333M\275\272\222\031\275S.\331<Z.C=r\022\027=\204\021\334\274;\336{=$[\276=\020\340\236\275\033\372\341=9\275\362\274\237\315\247=Pc\002\275\257(2\274\002\314\3709G\323\006>2a\n\275\334D\322= \341\032\275\370D\016\276J86=\002\372T=9\326\353\275\0165\223=7\006\"\276\356\025i<\031\033\306\275\3701\364\273\363\366\t>Mn$\276\233\312\200\275\377\367\334=x2\367;r\204\037>a\2132\276\361_\361=I\305\230\274\256~\001\276\230\333\370<\356\001\020\276j\026\207\275\260\310*\276 ~k\273\262\333\204\274\262T!\274\314\243G=P\333\247=x\246\024\274\003;S\274\371\007\022\275pB\030=t\231\351<\017AX=\r\362\205\2750S\025\275\376\254\266\274/&3=\221\254\207=\336b\261\275\240&\266\273\373\3035<\301N:<\363\275\277\275 \272\037\275\360Ol<?\240\204\275z~\212\275!X\"\275]\345E\276\350\205.\273\242\216P\274\332N\n=~\031%\275_Z\025=\213\323\336\273\212\024\321<&\276\320=\"\234V=\205\0332<\311\276Y=0\252\252=\033\246\257=\352m8=9\327\321=p\245\201\275K\332v=\273H:<\311,~<\341T\304=\031\367><\313SJ\274= a=\022A\207=\312\276M\275{\333|\273\257\270\250\275;\304[=\212\245\'<\033\272\331=\270U\222=\311\325_\274}$\254\275\2620\202\275\225\327o\275<\255\315\2748\030\020=\261D =\036\246\241\274\372\027\255=v\222q= \032;=x\326\232:\316B\005\275\266\246w=\207\002\016<H\021\021>D\353\205=\024\334\226\274\377\2418=\270\346\214<\217\204L\274\362\353\252\275\273Dk=\2464\241;\240\225\365\275d\177\262=;\032\210\274\257\330b\275yC\241\274#=\363=\203\r\364\274\033U\205=\370G\211\275BU\210<\210E[=\363\220\264=v\034\251=\217g\223<\247*U\275\031\014\205=\305\325\206\275\312\370\316=\206n\377\274(xL\275_\362\245\273\241\357\210<\215\241r=jR\323;\364\214u;SO\037=\272\307A\275\255\277\234\275[u~=\3435\210\275\230\273(=\216\271\247\275n\016\270<\366A\206\275\236%g\274s9N\274:<\000\275\377\276\n\2748?\017\275>an=\351wH<\'\207\371\274\302\223\366=u\026\362=`\220\221\275t\226\217\274\372i\"\275\320\020\\\274\324Y\023:\206tB=\265`\223=4\365\324<\215\336 \275\327\304\325\274\"\n\332\275B\366v=\023L\027<\024\235\330=\256(W\275_D\324\275L\300\330\275\334\\\002\2757\231|\275J<s=\322\027\322;\201w\307=J\203\341\274_\243U\274~\351\030<\257\261\206=\232\010\016=\007\014#\275m_\232=\201\341w\274\267\204\206<{\025\200\274<\250\233=R\300\032=r\034\240\275q-\273\274\325\000\361\274\325\272,=\'v\213=\033\336<=\237\216T\273\023\326p\275\366\023\350\273\340\376\030=7^\034>\221<\000>[\032\241=\316\375\301\275\017M\225<\373\016t\273\311\300%\275]Ut=6\202[=\241\234~<\257\262$=J\302\227\275\323\235\266\275\253\034\024\274o\362\003\276\303\361\267\275\004kK\275N`\353;\202\343\016\276m\322\270\275\215\315\252\275?r\215=\336\360\367=\204\271\255=\002\005\357<.W\032=6G\033\274\0258\320<,\022\006\275\363\'\371\274,\016\246\275\005\301\257\275\371\023\301<\223a\340\273\006%\016\275\022\222q\274wq\017\276u\205~:\235\211{\275\017g\212\2750\230L<a\260\200\274P\010\253=P@\364\275\265\356\224\267\301\036n=Q\332g=\224\237O\275\213)\325=Qm\350=\030IX\275\234\336\024<\237\2139=xCJ\276\314\210\374\274\3759&\275(\017\361=\013\330\340\275\240\217\213;\342/+\275\037U\241=}\360\'>\277\261\"<\332\2377\274\177\264\211<\371\014\327\275\337\307j=\353\3738\2746\346\374<\3476\240<\244fk=\336\3170>\357L\234<O\273\273\275M\344\276\274p\275\006>\245\002u\275rLt\275T\\w\275\276\246\317\275\233\302\272\274\230\254P\275\0257(=zV\223\275?,\254\275[\352\344\273\n\024\357<\272P7\275\276jc=\260\276f=9\227\360=n\201\245\274\305\354\312\274\025\261L=\303\353h>\210\211\222\274\275\274\211\274g\025Y=\252\220\313<=\001Z\274^\022\021\276\034\243\252=T3\334\275\320\334\207=\tY|\275g0\364\275`g\366;Y\022\200\275\337\377p;Z\245\354\274w\234\3048Tsg\275\333Z~=\302\344J>\347\311\016=C\005`=\270\3242\275\241\"I>\2010\350\275Sp\321\275\\n\305\274\332\tx\272\232\363\232=\036>\025\275\233\277\277<P\\\244\274\010=\365<\237\252I\275\204\345\302<bl\367\274\255X\272;\222\355\204\274sB\013\275\2024w=\005\256\243=<W\263=\356\224\003\2750\240\034=&U\352<\273\316\311=}*K\275\205\275\232\275\214\233s>=y\036\276\254\032$>\272-\241<\023\245\177\274;\\\241\275\017\'\001\276\330p\373\274\020\354\265<\2079\336\274\350\376\177=\260z\024\274\264\331!>\2222\002\274e\303\311<\245\207\310\275\314&T\275\206IE\275\\9\247<\347\\\373:o\256\332\275\2304\236=\260KU\274:s\343=\253\242\303<\244\247\213=\214\323\021\276yV\217\275\231\302\236=\244V\255\275\210M\016\274Mq\263\275\025\247\027\275 \214>\275H\226y\273\355\270\312=\275\370\333\271\334\351I\275&\000\\=\301\363E\275W\030\246\275\370\351\220\274\"H\227<\347T9=G\224]\275\201P\210\276\325\361\240\275Tx\203\275r\260\225=\000_\225<\313\332!<\370[\254=\035\206\334<\252$\025\274\017\013C<\350\365y\276ZJ\231\275\003\213\316=\364\246N=?\307\006>g[\310\275`S\327=\375\356\003>m\264\020>Xb\372<\271\242\212=\331\355\336\274\rf\000>=\2064=\372(\023\274\205x\305\274|\250*;\032\357v<\275\200\206=/\243\301<\234\223\264\275y\353\017=>\232\241=\367N\251\275\273\334\264\275$\322\224\275\273\001\265<\247\220\333\275\216]\351\272\275\'*=/?\321\275\301l^<h\320\2449\361\253-\274\306\013\341\274%\220\211\27534\031=\212\205D>_&(;S\201\023=]tE\273Z\344\301\275\247\341\n=\307\205{=\'OA<\021\371\214\275\270\004\366=\303\335(=\243\\\205;\312\334\371<02=\275@\275@=R\350.=\264\227\375\274\303\201*=\357\252\264;@?Q\274\364P\270<\325\215\373\275\366Q-=n\000\217;\221\241\211\275\374+\251=\341\353\013=\313\321\315\275\360\215\325=\306\n\007<o\"\"\275qq\335\274*\022\371\273\n\331K\275]\274\253=\274!\003\273 \363}=c\203\207\275\320\3201=\242\372r<1\'o=\217\3115=J\002\r=\240\362\204:0\226\342\274T\271g=H1s\275\377\t\235\274\002Q\261=m\"\236\275\253\256\206<\361AS\274p\373j\276\277\246z\275\020\247\221=\314\264\245\275n\222\305;\227\317\216=.\324\312\275\027M\303\275j\365\271\275\236\277\240\275\2121\035\274b\375\205\2759\313M:\350\201\363<\031\307\032>\366\323\244<\206\272\215<\203Ig=\316\237\246<\255M\237\275\333\242\352=\031\236\231\275\234\360N=#\023\320\275\212\332\306<+\330\232\275\311\305\267\275\251<\022\276\374\270\230\275\240G9=\352\346\357=`\310P\275\265}\352<Y\261\231\275\236\244\013=\354x\205=\253\374\262<\'T}\275ohe\274\271\370\316<\205iI\273\201,\205<F\277\335\275#\007\262\275\0329\333;\322\277\323=g\242^=&\037\212\2750x\335\274\213y\201\275$\325\245\275\204\264\246=4#B=\005r\014\275\214\331{\275M)Z\274\304\371a=\333\034\225=\373K,\275AC\262=\334#\256<\'\022\273=\036l\272<ynH\275SH2\275\314n\366\274\310\326\326;j\252H=\264{\355=Ul\360\2747\367e=\211\277\376<9\026M\275\005\020\331<~\234%\275\364\346B\275\305\310R\274%x\204\275\317-\334<K\241\013\275\364*\367<}\343g:\351\370\256\275\346yv\275^\020\311\275\014p\006>\370\027\200\2748_*\273\316\2074\274\235o0\275\326M\215=\300\030\034\276\340\306\016=$s\367\275t\333\376\273\260ky\275\225\276)<@\031;\2756U|=^\rc=\007\334R\275\007\017+\275\217\342C=\307\250\253;\330N\262<J\234\276;\306\323\355<L\003\321<\311\370\234\273\307\361\324=\314\231\004=:\253\020=\335J\350=\303\277\"\275\301\204\234\275\246H\037=\364\2642\274?\340C=\3120J\275\251\252\n\276\362h\345\273\014{\236\275N\326o\274\246\241d=\203\013d\275?\360:<R{\373:\323\324_=Y\177\204=\214\222J=g\340!\275\351s\204<~\032@=\n\024\213\275C\323\363=\\\001\232\274\331]S\274\333\200\020>Z\334\360\274\250X/<=,u=\007\305\325<\346E1\275<T\251=\346\'\230=\327\245\233\275\034\310\220\272\\\017\263\275\324\260\004\276\021}\275<\r]\013=\323E\232\274\327\276\025\275\326>\202\275\335[*\273S%%=\016\320\241\274;\310\351\274>\250\362<`A\240\275h\345$=\177P\261\274\366\240v\275~\000\224=\346R\245\273$\345h\275+\262\214\273\373\037\022=\242\255\222\274d\026\"\274\353\004|\275\324\231\n\275\202\t\240;\035\204\337\273d9j=3\300\003=\003\320\255=H\340\315\274$V\336:3u\004=\33788\275N\240\335\275\007\326Q\273\353\321\236=\316\'\t;\322\356\235\274\023\000\304\272\355T\006\275\346J\357\274\r;\236=\344Q{<\2629\331\275z\0174:\\N\'=NS\240\275\354\255v\272\243\343H\275&\371c\274jmB\275\010o\222<V\237E\276\241\257\205\273\013\324\245=\240\3113\274\007+C:\321/\351\275],\204\2759\223\021=\257\303\306\275\315x\010=\310\257\000=\364\350y\275\205N\366\275\244!\202\275\'\242\035=\270\027\307=\356\216g\275(Z\217\273{\344\035:\363pz\275\256C\332=\305X\275\274\224\237\212=\336\200\362\274\362sE\275\240\343\276\274HJ@=\331z\261\275\330\n\344=z\331\325=sf\304;C\315*\2749\323\006\2741\344\220\275\271\022\022\275\022d\326\273\'{\240\275\260}L=>]\n\274|\035\233;Q4z\275\243\207\010\274\267S2\275.\026Y\275\326)\n\273\010$6\275\017\332S\275\001?\205=\271P\021<Hn\204\274\177\017I=\\\250S\274K\237\n\276\357JT\274\233\313\262=\255 \241;J\266+=\'\262\266<\235\357\257<\010\236\237\275\217\345\346<+J}=\350\013/=\260N.=\024r-\275\022)\230\275JA\254\275F\\\337;\212\343\230\273\236s}\2751\010\266<\354\274F=\311\327d=\021\322\213<J\241==\035\346@\275\312\203\'<g\267e=*\322\307<\326\036\333=d\227\223\275\022\341\034\275I\232\252\274s\364\225=\371XS\275\002P\305=\321;\205=\027w\030<\237\010\313\274\276\r\006=i\332\223=\034{\357\275IU\256<\377\347Q\275D~\264:\260\036\207\275\356\264-\275{\332\355<A\316\014>\214\263\211<\016\023A\275\306\307\231\274\207\365\022\275]e1\275\304\332#\275\334o]\273O\225\336=bz\353\274\313Z\204\275\261\353`<\201J\r\275\236K\032=w\267\n>(v\"<\\4\304\275mt:\275\231h\274=\376M\253=\273)\316\275k\304\252\275\276\303\005=>h\221\275\267gi\275\251]4\275Wy\313\274\262\310T=0\261w=\311\203\005=n\215b\273\275\032\237\273\371\177\247=\005\003m:\233?D\275\230\0258=\013\233\266<\321\001\016=\353\234\350\2759\333V=>qN<\262\3317=@~\210\275\353\017\362\273\371\036\251\275\023\210W:0\277\031<%\367\311\275\317\240\004<2\005I\275O\017\220<f\231\301=\363\\\222\273\331\305\022<\267\332\013=2A\276\275\026\266H\275 W\215\275\354\201 \272O\251\341\274\355\244\266\275\242\007 >\367EO=\021Y\3349\361\324\275\275$UP\275w:~\275\234\356\217<o\350Q=B!\256=\n\337\273=u\327\370\275[Dl\275\006\210\310<\222\374\246\273T\271/\275\330\322n\275\221\014\241\275\314\300u\275\007j\002\275jL\026<\037i\265<\300\315\342\274\r\310\033=\307\252\271=\306\024&=\032\305V=\031\263\204\274A\306\276\274\261Vf>\277\200T\275_\210\241\275(\223@=\373t+\275\340\307\220=!\217C\275\315\315\337\274%t\317;\223\005\326=\371\334}=\267\230\270\274B\315H=)\227\275\2724\365z=b\014\375=\207\356\001>3e\325<,0\346\274Ju\026=\274\307\312\274\315$H\273\273\246\014\275\204H0;\254\263\344;\233\371\014\276\201L\245\275s\346H\275@\220-\274\362\026\233\275?\210\335\275\244\000X\275pN`<\302W+=\263\210\021\275\371-\'\276\020d\255<D\237v\275z\340\230\275\202\014\265\275]\330_=\214\356%<a/\230<WSl;L3\350=C\314/\276\327\037\020=\317Rv\275\003\243\243=\371\272\033\276\210\276\233=^\347\242\275&\207\325\2737\321\261</?\241\275\211\333\245<o\311\206\275\036\265\010>a\333\270<\211\003\031=\r\361\225\273=\377\260\275\002\207P\276\352\361\333\274[\373\035\275\341\216\202;\010\317\337\273`\357\004=\277\322\206=\213\257\277\275\206a~=?A\005\276\274\377\222=N\032\366<\311\204\273=d\021l=\210\210\255=v\213\000\2764\353\203=\212\245\206=\245\203\217=C\027\331\275\267\246\204\275!g\201\275\362\370\277<\210\231\212<\r\347E\275\252\204X\274\376\271\253=\362\2231\276\026\363\027=}\263W\275I\324<>\220H\222=L\n>\275\327\354\202=\264\023\317=T\310\227=<\347\306\274\023\314^\275\231~\005\274f\202\205=y\277c=\303p3\275&c\304\273\240{\247=^.E\274>U\335\273\007P\247\274.)s\275g7 =\200Q\002>I\234\r=\311\320\n\275\364$3>\021\3156=I`k>\365\332\336;\305\034\276\275#\322\261<\226\251\254\274\26412\275\362\n\001>R\341\t\275\265\004\251\274*R0=\021C\226<k$\t:w\220\017\275\032\312\240\2758\346\321<\321\003%\275\233n\215={\322\201=\002\272\022>-J\373<\240\321\033<\327\240Z\274g\271\002\275V\263f;Ul\267\274H\201\250;\260\355C\274H\327\252=\033+\017\276\310\007\024\275Z\023\215=\235\006\371<\245\225\303=\233\215N\275\364\340\224=\347\361$\276\345A\261\275\353\205\n=m\037\245:*\375r=\360\006$\273d \246=\302\007\260\275\370\240\323=\255\260\361<\020\021K\275\227\330\252\275O?6>^\362\306\274{\226\334=\302w4\274\022\341\323<$w\013=`~1=\300w^=\037\004\240\275\237v\247\2742\211\254\2746\240\217\274\375\'\305=6pB\275\3177\216<\\\321X\275(\350\365;\337\n2=\316\006 \275\341\244H\274\372\246\264<\306(\002\272\245\315W\275m\354\307<\350.\024\275\002fk=\255,\003\275i\312\030<\n5\242=k\325?=\247\240%=\365k:<\231\336\374<\205f[<\177V\366\275\365\026\200\275\263\203\r\273\2632\021\275\375c\017\274{A\344\275\005\235<<1\240m=\302\n\315\273\177\036T\274r\031k=\003+\253\275Ewt<\306GW\274\223\030\215=\260\316\222<m\326\213\274RY\353\275i<B;\224\364:\275\307\001q\275\300v\023\275\370\310\233;\225\204~\273z\331\340\274:}\233\274D\211$=P\252\327\272\232D\232\274\216\327D\275d\0051\275Q\000;=%%\360\273\373\245q\273e\331\005=\346\206\323<y/\363\274`\335\373=\001\330\243\275\375\253\211\275\021\355\267=\337\215\032=\343oH< \322\022<\256\037;=B\275Z\275\2229~=7^z\275\001y\360;\264za\275\000\246\376\275?\341\251\275\341\304\232\275\345~\262\275\364\013\265=\356\312\213=\363b]\272J\004\265\274f\036c=\360g\307;wu\220< x\202=\265 \235\275\020\005\311\273\257\344\273<\n\007[=:\324F=]\020\020\275\376YH<\270v\314\2746\200\353\274\254\300\306<\211\252]=\353\307\256<\023\377-\275\273\333\r\275\351\026:\275]\316O\275\331B\215\274nu\177\275t\017\205\2749\273\'\275\342o\004\275\212V;\274\254\270\336<e6N=\325\014\225\275\242\246\242<\301\235]\274\232\017\344<\r\330\310\274\302J\353\272\361O\300\273\264\360[\275#\244\340:\322\251i\274\334?\253\274\204\200O<\025s\"\275 \t;\275\272\201<=\r\317\247\274\035\023\254<\310\033\314\273\005\216\014\275\222a\346\273\357g\335\275,\030B\275h,\271<\271\021\225<-#*<?\236\332\275e\345O=,\304\027\275\327\004c\275\225~9;{r\206=\034\343\332\274\030\312u\275uw\231=\330\250\227\275\303\235)=c7%\275\363\330%\275\241d\241\274\360c\"=\'I\014>F\216\261\274\300\254!=\361)B;Zy\232<\366\356\336=\033uO=[\235$\275\303D\216\275E\r1=\022*\216=\'\0303\275\233\3433\274\224\266\036=\256Y\000=\r\256c\274~\367\013=\274\362\332\275\255\264\240<\303)#\273\237%\014=\010\033\252\274b\222\203<\201\222\320=\231\267\016>\207\274\266=~\324:=\323\335h<jb\243\273\313\\\035=\214^\205=4\205\207=\024\3048\272\001R\274\275&Ly<%\032\n=\332>\334=\375\377<=\036R\024\275\204\277\226=2p\3026\254-\242\272\274S\310=\236\310\007\275\244|\250\274^\370?\274\221NS\273\332\034X=\210\343@=\224\324\002=\275\222*<\204\007p;Q|>\275d\033\225\275\320\356\210\275\205\206\003\275g\003i<\377:\241\274\tF\213=\203\324b<\320q\216=\254\262)\274\030@\317<j\245\376922\246\270\026\223D=\177\241\251\273\270\000\237\274\222s\030\275\r_O=\350\254\267=\276\236\221\275a?\033\275\316\276\363=/\371\227=\363 D<\202\033\205=\331\213-\275\037%i=y\217\200=\242\226\373\275?\0273\273\243\313G<\216\374\206\273~\253\260\273\203\373\'\275\3032\270\275OL\r=\231b\247;s\244+\274\302\203^\275Wq\272\273\320\366\003=\247\347M\273)=q\275pT\224\275\321\317\346<\254o\220\275\234\260;=\3633\302\274\231+<=\3212\246\2744\263\230=|q\024=\3731l;Z\254V\275\315_\271;\254=/\275h01\275\320I\3469\346\253G\273\350Jw=,\345-:\347\r\230\273\'\014\277\275g\277Y\273-w\240=3$2\273\341M\225\274\233W\374\274M\013\245=0\242\022\275\353\007\334\274\017\253\225\275\225I\211\275\314\212\353\271)Z\205;\264\227\265\274\034/;\275\035\014\250=\315{\026\274\021\217[=\257]1=-t\342\274of\220=_I\002<\313\244\235\274\307\232\201=g\356\227\274N\317\r\274\027\325V\274n=\321=U\227\030\274\342\200\334\272\263\300\n\276\323 \305=_\361\237=\246#\313\272\335\026\177;s\237<\2737Q\026\275Z\2362<\215C\370\274\200\205\014=\362\322\207\274\335\004H\274U\251\236<hl\273\274\376\n;\274\223W\242\274\003H\226\275\365\026\003=\255\223\025\275\032D\265=\346\017\246\274\301\255\225\273\304C\030=`\016\366;\214x7=\362KB=\275[i=\005\250M=W&\0008\0315\275\275\241\311\210\275\273c2\274\252\2378<a\234\017\2753\013\233\2733\'u\275SU\014=\347\021\035<\373\216\322<z\313\224\275\021\017\207\275\341{\242<\3749\315<\211\273\n\275|\210#:\221\032\233\274h\213\213\275\326\221\322<\'8\'\275z\361\370<\233\363A=\361\243#=\346\207$=(@h\273K\007#\275\333\361\246<K\272\030=\301\375\032=C\231@=\304Zz=\301\244\361\274\346gq=\037\014\240<C\365\030=\032\201\022=\031\243+\275\016\374\204\275\030\277,=l\r&\273\301\"\335<\275\214\276;d\233\243\275!\033\310\274\017\240\341;\243F\351=\016\235\364\274\256\303\021<\363H\353=^V\220<Fk\315=?:\226\275\237\354\377\272\260\304\212<\025\200\275\274\017\022\244\275\324I\344;\371\034<<\031\217\336\273\035\033\311\274\322K\354<\\D3<\365-l\275\240\311\001<9\264Y\274\001\341 \276s\356S<\203\321\236=#|\364<\233\377\261<\004U.\273\0040V=\026\350i\274Z\300#\275\346:\242\275\323\321\036:\334/\267\274\034=\220;\"\302\312<\305\301\001\275\031\373\021=2\026\274\272\364\\\244\275J\273\320\274QI\230=\020\262\223=MB \275\2058\252=\000\313\214\273\206\217\212=\321<1\2751y-=p\376u\275\r:\377\273\305\361k\274\345\\\"\275\035\241\264\275\354>\375\274\325\324\371\274x\243\021>\215gv\275\020\340\002=\312\211#\275a|\303\275\340\002\037\274\255\353\251=S\315o<IX\235\275p\201\227=\322\317\326\274\033X\270<\230J\303\275\324\201\232=\341a&\273\274\362%=\366\342\225\274j\027\232\275\202+\256<\235\3113=\016h\'<b\2558\275\245\200\335<\1770\234\273\315c\231\275\311\276p\274\336\030\211<\273\236A\275\260\211\260=*&\265;u\244W9E\230Q=\321\006\375<[\005\214\275\274a\237\275\344\233\227=\351\234}\274\215\227\010=\2604\355\275\333\363h=\r\217\013\274M\005\226<\232\324\005\272\277\334A<\317\254\221<\303&\024\275\020\210\257=\236\357s<\357\354\235\275W}\006\2755\313\364= \033w\275?\317\215\275\320\305;=\024T\355<\261\255\200\274v\037d<\306\201\\:\210#\276=\243\337\022=\244\301\376\275/\225\346\275\255o\"\275+\372\224\274(\330\032\275\333p*\275\357d;<\231\312\320<\2342#\275q\006\255\274483=)\211:\275R\303D<S`\022\275\327\347\3719\"\\\327=\"\276\274\274\276\375\235\275\321\302\241\274!\\5=\360\2272\275l:\356<\004)\344\275\350\2365\275\366\225i=\304\252\022\274e\236\235\274A<\037\275\237\316\034=\242\t\273; G\246;T\221$\2755\207/\274z\235G:\253\027\354=\376\243\266<\357\016\331<m\361\223;\326m\314=i\265\211\2744d\200\275\307D\316\274\233\272\031=\230,5\274\304\377[=|KE\274\260\355)\275o\304\"=\342\350\310=\001\212\364\274\261\203\325< -\034=\200\213K<\270\232\024\275:\201\211=\376`\200\275\242\232\337=B\222\315<\225\001\342</\207\203\274\251g\304<\316K1\273\345}\366\272\231\246\243<\016\264z\274\037\230\006\275\030O\376;\274Z,\275X\214\357\273\036A4=H\354\227\273:\254\200=\320\245}<@<5=b\023\312\273m\020\005\275\374\033\224=\006J\203\274\003wk<\336\303\033=\367\245\202\275B[\260\273\206\275\350<yk\321\275\240\224\254<Q\200E<\240v\205=\2028$<K]C\275\234\024D\274\240\233\332\273\362\227\207=\025Y$=\363\240\215=\255\347\033\275Yj\342\274C\"y\274\203M\242\274\005\214\035=W3\r\276\n\344\214\275>\\\035\275\356\204\371<\310\013\207=\353\357$==\200\361\2748\271\321\274\370\036\304<\325^\231<\216ui\2756\362\016=Q\245h={j\353\275\375t\236\275ehK=\3627\311\275\253*\336=R\271\n\274\217\001\265\274@h\270\273F\242\264\274\320dF\276\272m\351\274\030~\367\275\215$f\274\322\304W\275\010\027\324=\357 \213\274\231\013!\2759\300\020\274\004\374\004=\2113+\275\302\240\326=\2211\000=`\200\003\275\371\320\273<\314,\224\275\\:\245<\324\303\275\275:\360\331\275\354$!=\351\004,\275\303J\200=U/\245<G\001\215=~\230\236\275\367\006 =U_\214=w\337\216=\2345h\275\335k\r=\002e\232;\252<\275\274c~\303\274\336Gk=\217\033H\274\210\231\362=\004\021\220=\251J\313=\361_V\275(\270\303=e\2436=\250\261\374\272\343\223\267=\325h\265;\215\376\244\273\367MP=?\303\241<\215\016\014\275G\373\344=\244,9>\301\246\037=}\264#\2753\242\033\276\370K\"=\n\313=\274\n!\004\275^\013\246\275L~\177\274$\004V=\343\310L<)O\214=\271_\254\275\3542\245\274\377\270\201\274\317\002\216<?\236\213<\273LA=Q\247\243=\232\033\201=\325\217\237\275Q\215\373<\243\344\013>\252\240\316\274r\277\205\274\266\r9\275\314q:=\235\016\266:\224=\014\276\232\200 =ch\032<\027z\274\274D\357*\275\231\235q=\320Cl=4R\320=V`0=g\304\226;\014\242\312=y{\347\273\261R\355=\340G\226\274\336\331\217\275\177\016\220=\341\214z\274\263\342\247<\246\203\365=A\321\351=7&\222=\337\025\t\275?Va<w%\266\274\314\203\\=\323H+\275\007v\026=p\337l<\362\340#>\362D\304\275\231|\346=\351\366k=f1R\274\315\357v\274\233\036\227\275\266k\005<3\016\021>B<\021=E\320\000\275\305\370\340=\316\030\030=J\231j<\360\"\033\275b+\002\276\212G\332\274En\207<\371\211\325\275\211^\317;ZK\021=>\334C=k\362\331=a\202\353\2751\317\007\276\231\363\026\276\232l\202=D0\252=\373v\252\275\212\372\001<\366\201b\275\356\355\013<\223\227\017\276\333\331\023\275\260\302\246\274u\205t\275\t\232\345<\030\256!\275\217#T<\033M\034\274\014\013\235\275\241\016\311\275\271\346\267<\023\340p\274\"\2773=\312\021\371\274L~\343<\034\346\213\274\225B\276=qT+\275G\351\305=\276\252\240\274\210\023\306=+\3450=\311Q0<1>\024=\277\365\336<\270\221\010=]\234\020\273:\344m<7\213\177\275p\027q=}\227a=[\221\371=0\313\261=\206\323\244\273\365\2606\275\010\016\006<Gp\001\275\203<\314\2747D\261=\366\251\377=\236\220\032>Y\001\210=\037&_=\023\027A\272\036uG\275$\020\356\273\276j\311\275\\iT\276]_\245<\237\227\305\275\020c)=\273r\221\275\266f\330<\023\372\224\275\220\213\345\274+\333\347=6r\362\274\247\357\343\274Kw\016\275\234`5\275\222\206k<\357T2=\023L\213\275\026\036\036>Z\270/=\220\025\240=\nM\376=\210;\354<\326#\263=\023\312B\274\235\253\330<\240\233\324=G\356\300\272\212\225\364=8\236F=\010\243\n\276\202\307*=\034\317\344\275\253\355\370;\2131=<bKS\275$\345C=\201v\362<\177u\210\275`*\314=z\\\241\275\202\344\016=j\271\263=Ef^<\200\215\216=\254\025\231<\261\242\217\275z0\263;\002\343\001\275\234\302\230=\340n\224<\031^\352;R\021x\275!\313R<\"O\237\274\250\r\317\275/\242\'=\267\254\r>\3649\236=\306\320\225=%\224L=.w\337=\2427L\275\376b\016=\315\016\235\276a\200\334<\246%\312=rY\256<\005\352\220<\025()\274\354\021\202\275\363\027\031=\2037\030\275\002\223\300;\005S\326<\322\374\322\274J\326(<\362\034\370\275\n\271\002\275\335.\212\275?&\240<\354MG\275\005\371\027>$\021\020\276\003!k\273T\210\264<\257\274\237=l~\251\276\365x\244=\303\002\"\274\263\225\274=?\213\257\2758S\216=\217!\336\274\322]/\274\346l\021\273\315\'\241=\367\270N=\035\256\230\274~j\265=\350\337I<\206\332_=\006\202U\274>\260\316\274\3755a\275\244\223\217\275\347\340\213\275\t/\206=\"\210\250\275\366\034\321=\214<i\275=\361\'\276\252J\r\275)\255\313<\034\337j=\247J\334<i\340\017=\334\243\032=\363\244\307\275\243\255s\275\266]\021=\350\211\260==5J>\020\024\271=\222\347\341\275\272&\t\276dOk\274\2324\260\275\036\346&\275\214\253><\320{\303<\231\365\017\275\361\326\220\275\221\216\364\275\212\037\255=\200\234\240\274\357\272*<s\217\230=\3117\301>\nH\226\274\272\215\305\274\352W_\274\242c\022=\350\025\035\274\362*`\274\377\203\000\275*\343\016\276\247\252S<.\265v=\235\034\234\275\017\200[\275Iw\312\275P\006G>e\021/>\344\202\312\275?\353+\276\363~\026>[\246\305<\353\004\232=\r\373\000\275i9\014\275\263r\323=*\327\224\275c\213\006\275\341\203\301=:\366\325>*\016\315=\311\342\000>O\250\277\275EQ\035\275\357\267*>\005\363!\275\310\310\275\274o\2479\275;\243\245\275\0301\374=\375\266l>\273P\317=\266\350\237\276Z\330U\2743 3\274\323\201 \275\371\222\233\274h-r\275\0148\331\274l*\254\274\024O`\275i;Y\275u5\001=\2179\333=F-\t>\334!e=&\306j<8\374\t\277\234\374\317\275aR\322=#\252\267\273\246f\017=52r\273d\253Z\276}A\215\275\330\274(\276jG\267\274\312I\321;swn\275\244\223\211=E\340\237\275)Y9\274ty\246\275R\010\r<\377\255|\274\312\016\212\275c\3064>\265E6\272\203o\201\275\'H+\274W\342\213=\270>\202\275\307u\236\274#z\227<s\212\275<\3046\204\275b\200n=\311\030\256<j\3462\276\006\004\250<\033\035I=}\236\256\275g+\257<9\276[\273\"D\220<\020C\303\275\\\334\243\273\364k\200<\246\372i8@\216\030\275\274\205\025=\334\274\272<<\3511=B\273-=\263\211\023\276\230\227y=\315\256+=\324\252\201\275^t\376\274n\202\031\273\202\207\221\274\276\264\300=\252\225\372\273esq\275B\306\333;\023\255T:P\316\204\27499r\274\214\353\317<\272\343\256\275y\t\371;\342>\325;L|1\275\352\373B\275\245\n\020=.\366N=\\\333\361=d\3100\276R5\023>\304\210\243<\204P\024\275\031S}\275\264\370\354=\014\343E>\210\263\377\274\016\036\210<->\225;\241A8=_n\352\272\005>\232=\346\345\342\275\354\262\243=\376\213L=~\177 =s\202\010>C\336\232\273\242!`\276^)\251<\377,\'=\347\337\327\275\207-$\276\252s%>4\022\275=\274\321\002\276\231\206~\275A\215\233<\017~i\273\031\267\326\275\202\242\217=\253\324\307<e\037.\275\345\022\025=\333\356/<n&\004\275\333\353\221\275y\202\353\274\231\306\344<Sp\326\274\333I\230\275\216\246\003=\024\335R=Os\222\275B\014\361\274\351\014\275\271\313\226\352<-Za\275\204\002\014>L\324\202=\r\240L\275\222\0071=\305\323\236>\362\213\314\274\235\332_\275\362d\211\275;RP\275\257\214T\275\372u\227=\267ih\275\026@\264\274>?D=\306\006K=\222w\241\275\034u\260\274\237\326\325\274\274\200\227=:\301\360\275\222\247\254\275x{\341\275vMx\274\351^\314<\306\212\237<\261\004\224=9\003F\275\204\016\342\274Y\363\002=\232\317$=\255\252\242\274\332\374W=1_F\274\320\r?<ro\317\275E4;\275~)-\275\327\357\005\274M\244;=z\352\032=(\'\321=\217Q\013=\326\263\354\275W\362\261;tV\252=@\003\250\275\211$\022\275\241\001\303\275OFR=s\312\277\275Ja\'\276\207\212\033\275\270\307\262=2\271\272=\260*\210>q\211\254=\364$\357\276\246\0218\2760\332\231;CY\266<)\372\342;\212\207\033\276j\270\256\276\014, \2757\320\020<\302,\232<\275p\230\275\261D\020\275~\005\233=\372D\020<\217\020/=\307\225O\274\236!\274=T\353L=\207\327p=\242\240(>Y\177.\275\256\013\003>y\013\032>\366\2122\275\273\000\257<]t\374<=cJ\274\361w\020=I}\340\274\007\373\317\272\366L\275\274\313\016\207\275\204%r\273\2236\251=4\220\'=\256$\367\275\353m\245<\256\210\241\274\217\2539;\236\246/\275/\225@\275\352\375\347\274\263\005\245\275jT\030\276\312s\313\274`A\005\275\031Y\214=\374\206\333\273\354\217l\275\333aB>\217tb\275AM1=E(\221=\244q\033=N\257\254<%\241\237\275\370\013\323\275*W\007\275\317\361J<\272 :\275]\262l\274\325\377\202\275\276\226\'>$L\256\275\242\226\343;*\207\014;\371\\\227\275jNK=j0.=,]&\275f{I=\312\221\224=\251\360\005:\254\246b\273\370w\354<q\243\213=\311\327\215=a\254i=K2$<\361\243\355\275\210\210\\\274\213\010\203=:E\315;D\202\'>\355\354\210\274\007\343\000\2765\314$>\246L\372<\371\207\332<\223\314M\275\336\257\177<\246kr\275\353\365\t\275W8\250\275\272\"\246\274\304\300\002>\377IC\275n\002\272\274\375\236\227\275\365\246\267=\326\363\251\275\323e\250<\3304*<x\032\250<\3120\324;-o\302=\270\356\'=\375\003\215=o\342\234\274\337\025P=\244ld\274\356\222\310<\316}L=\211z\350\274\335\276A\275\036\034\301=\216\362h=)3\202\274\306\276W<} \212\275=\321+=\310?\231\274\220\343p\274L\247.\274\370\373\374<\010\365t<;5\253\274\354\021\326<\266=:\275\251\226\261\274\232\000\034=\237\\\273\275b\243I\275z\007F=_O\217<-\230\000=\357S \274\010C\204\275\346\003\217\275~\326\014=s\302S\275Ri\350=Q\t*=z\220s\275\2273I\274\013\320\353;\177\243\000\275\021X\317<\340\372?=oq\243\274\313\367\200\275v\232j<nd\253;\035\351J=w\'b=\227\376\207=\340)k\274\242\\\303=\331z\355\272\266W\266\275V\234\311<lR\345<\212\325\330=\227\324\273\275\212y\217=_\267\261<\357V\235=\327\270.=(\014\245\275\334\330l\275\350H\t\275\330\255k<,\260X=\262\360\225\274\361\341\271\275\'x)\276\355\222.=\215/\214\274}\334\360\274Sh\337<\311\331\310\274\344\002L=+\200T=\305>\252\275r$\223=F\250\336=Wn\326;\353q@\275\3172\n=\227\036\021\275\267\3724\274\022\025\356\273M\361\213<\240\356\226=\270)8>\242d\270=P+\334=\024 \217\275\341U\215=Y\327\216\275@|n=a\370\252;\276\326{=\372\350\026=\263\026\307\274\277\033\303=4\000\260\274\324a\034<&\2758\274\023W\272\275\300\220!<\003\304\364\275)\342\271=\311\270\211=\314\367\032=\214\205\377\275X\r\337<\300J\257\275\207:P=\372\244\002>\240\354\301\275D\366}=ARp=5I\342;\014o\230\274\362eM\275\000\r\303\274&p\"\274w\311}\273\326#\214\275X\272\315\275{\031\004=\317\325}\275S\'2\274N5P<\270\231o=2a\311\275&Q\311<\305\033\362\274\332u\226=\225J\311\275\2175\235=\316\204\240<\030\033\013\275\274\322\001\276\031\274\307<\315\344\356=pCr\274]\032\337\275\276\035\004\275\360/\217\274\251%\232=\214\312\270\275\320X(\275\256\214\217\275\301\354\274<\032V\253<\037\023\204=.\244U\276\'\223Q\275\361\201p=Z\232\241\275\3071m>\371Y\307\275\276\231\224<\255\217b\275\273\213\333<{g,\275\365\373{\275\351\267\260\272\206\226F\274\302\021\023=)K\345=\335Q\007>X-+\274\257\310\314=\031N\336<*\362\025\275i\310f\275\361c\276\273\315g\204<-\312\340\275-\303\210\275k\263\324<\005\007\344=\267\025+>~c\'\275\013\017\027\275O\211\261\274\331\263\237=kq\205\275/\013\316\275\244B\021\275\334V\363=\347\241\302\275G\371\214\274\305\236,=A\333H\275v{h<\r\332\231=\030\233\020\275\321`\026<\027\016\344\275SW;<\037^r=,sn\275\222\260\023=*\204\362;$7\231\274k\030=>\304\250\037=\300\3748\275\336_\361<\377\327\022\275v\373\335=\376^\340;24\035=7\\K\274\275\266\264<\244\024&>\244\355\005\276\001\374\261=\001G\002>\366\301\003\275J\360\370\274\261\010\025;2\366\021=\025\030\257\275wd\335;|\3461\275\330\202\004>\315J\367\275O\275\224<\035 g=v5\377\274\022\266\204=\007\n\333=\374p\255=\301^\025\276\276/\250\275^\343\372;\tV\030\276\034s\260=\336\'W>\223\024\233\275t\275L=\243Mp=`1\002=\254\267v\275\350\n\276=\367\366^>\276`W=\004\271G\275\024\353\305<._\324=\370\210O\276\023\214w\275\364\2116;a\325\244\274;\276a=\336[I\275V\002\223\275\035\275\006=t\3463>\306\222\034\275\001\204\212\2752\036\271=xC\037=\371\372\r\275@[\000\276\220\302\316\275nL\221>\032\361\357<\320\322\006=\241\331==\r\205\032=\366k\000\275\245v\303=\231\240\020=$\334\360\275\340\371\227\275\374\342\263=\201\032\364=\200\277\241\274\263\013\344\275\020\263\210\276\267\'>=^\333Y=\353\302\007\276\r;\025>\231\211\037\276z#\216=\232\375\204=\314\311\014\273\312\350\002=\335\301\205\275\264\266\021\276\366\215\034\275\345+\326\273U\225\215=\341d\264=}\202\000\276\226\014]\276\341\226\261=\312\224\234<;!\224\275O\231\211=G\242\354\274\002\364\365<e\346Z\2749\006\330=\207\371I\275\023k\220=N\002\205\275\245\354\210\274L\373Q\275\304\307&\274\207\342\215=a\360G>\3646\371\274\351\211\237=\334\025K\276\220\224\236\276\215\333}\275Jo|\274\001\267\000?C`u\274\271_\246=\027\271O\275~*\226\274\254}7\275\360u\236=\367O\215\273\204\177\336\275a1\301\275\rm\367\274{.U\275\232W\255=\261\325/=\345;\020;8\210(\275\350g\250;l\211\"=|\236\036>\002g\343\275\025\250/=d\366V<\224\225.=\353A%=eh)\275S\211T\275\r\004\024=\n\326\216=\002x\\=ty\021\275\023\216\r<\255\273`\274\225Y==1\"H\275\363\0305\275Ck*\275\314\364\033\275\033\321\215\274\252\3778\275.\337\222=\323\364p=\216\267\302\275\240d\255\273S&!\274\352\346\230<\266\327\357\275\237\377\250\274\362\231\357=\332\314\251\275W|\302=8\201\346\273\000le<\330\316\365\274S\0032\274U\032\217\274aGV\274\001l2\275Qi\363\275\305j\332;\025\216S\274\265\223\234=3;[\274\376\0038>V\260\321\274,\301\214=@\021\375\274\373(\016\275\306KE\275\233\370\207=b\207!\275z\265\373=\223\216\004=\322\361k\274\005a\350=\200\375\311=\231\364\237\275*\347\317\275\020]\"\275A\340\232\275n$><\242U\333\274$\272\010=\253\342[\275\211\030\363\274)0\275<K\300\005=\3111\271\275\355b\326\273\013p\005>\014\315T>w\037\326;\367\201K=\246\355\367\274\356\311z=\230\013\213<&\025\034<\256\270\004>o\330\317\274b\234b;~\324\010\275\205e\374<k_\023\275>f\237\275\210\270\367\275\212\340\352\274JX\013=NQ\017\276\'?\242=\001<!;\346\306\035=\321\211\225=\240\240c=\373\265\336<\354a\274=E\017\210=_\206\242\275\206\237\270\275\210+\033\275\265\340\336=\tN\206\275\232^\344=F\306*=\350o\315\273\226\244\367\275\261\321\005<\300\352\244=\311\335\315<M\322W\275\rQX=\341B\311<\014\025\225\274J\334\310=\022\"-\275\377$\030=\263O\327=\207\322\355\275C$&\275\204\007\241\2751\366&</\177X<|\320\031\275b|\311\2755w\023=\252\370{\275\032\363\272\274\202\372`=\007\301\254=\257$\215\273A\371\317\274\223[\377\274\241w\007>\016\214\005\274e\2740\274\034p3\2752X\020=\306^\234\275\233e\313\274\326qc<\371r\220\275\332\305\222\274,\243\362:\0247K\275\207:\222\275\271xT\275,\317\223=\210\022\231\275\375\303\362=\234lk<\247\252S\274\022rO=\000\317P\275\223\357\250\274j&\261\275\340\3673\276\351\276g\274w\370\325=H\023\332=\310\177\346\275\324\021\256\274^g\267\274\311\320\032>\276\"\n>\245\356\204=\250\345\212=\340\243\221=M(\244\274\311\233\025\275\nr.\2752\340\304\274\205\200v<O\2668<E\254\000=\3213\204=vc\271=\013\016\022\276\341w\254\273\301\345\276\275\177;\245\275\016 T\272\211\007\035=5\373\223<\002\320\200<\315\375\r<%<;\275\334~=\275\267\247s<:_\036\2752\356\266\275\245q\224\274~qs\275k\242\245=A\337\357\274.\324\032=\277\217^;\010\004\354<\301K\026\275W\315A\273\377O\371=\264\373\230=\263\277r\272\240\377><\255\357*=\341O\373<m\372\316\275z^\224\275\377\333\370\274\014\233\254<\033\354\315\275\336D\265=\236*^=\367I\204\275!Pi<\325\260\200={\014\017>\021\362R\275\221a\264=1\227\356\274\205\370\177\275\251W-\275\227j\363\275\276U\360<\005\234\010\276h\231\025\275om\250=z\300\353;\350\311\214<R\030L\275\2670\r\275\360\331A\276\220\240\234=(\201S\275\0257&\275\265\332\232\273]v\327\274\356^\373\274\376\014r\275\243Fh=\260h\r>\024\345O\274\210z\302<\315`\322\275\260\033\244=\016%g\275c<\245=\372@K\275\336\\\376=\276\017T=\311\231\232\275\273.H\274\215g\315\275\215\321\024>\226_\311\275\276\366\216\275k\2365=\356:\344\275?\242s=\265;\302\274V<\204<\315T\001=\336\345\265\275\274g[<u\240\006=M\262\245;\027\"\207<_\025\225\276G\353\342\274\217t\r\275\2769b=\376\245\267\274\235\353\320=H+y;j[\245=\335\276!\276\027@\241=j\225\032\276\236q\226\275\340T\266\275\332\017Q=\354\301\247<\233:!\275\303\312!<\267-\277\275\237\377\270:\0163\262<@\307\355=|\021\303\275XU*>\341\344\345\274U\325\314\274I\316\323=\364\032\014\274\364;&\276\021\"K\274oJ\207\275\215\313\217\274\202~<;\257\257\010<\332\231\217<@\223\025<\222\375O=2h\235\276\374\225v\274=\321\005\275P=\003\276\230\275@=\002\032\315\273\030\257v<\366\330\211\275(\344b=\345T6=h0\035=\017\261\014\276\303\006\222\275\317\262T\275\250\362\306<pc\224<\353T\210\275@#\023<\374\210@\276\203\235I=j_\261<\207U\201\273\014j\036\275\020\017\256\275\301\367\004>7\312\206>%\201\214\275x\241y=\031G\200;\273\362 =\222\302\001<\324&\306<\314\3541:C\245*=\036`p<\251h\017\275i\376\304\275\355t\217\2763\300\013\275$\353\213=\0308\231=r\324\017\274\322\314\241\274\000al=a\036\236\275\3353\216>)\306D<\317\001\332\275\025R\210=|\251\236=\263|\333\275\200\306\234=F.\332<\010\265\227=P\345\304=\3035\027=qd\024\275\305\312l<\023\020\023\275\245\257\241<\364i%>\272\221\364;q\312\306=\200}\027>N12=\010\313\326\275F\302\316\275\366\236\t\276\354B\242\275\253\205\010=\363r\253=*77=\034s\314=\243\247\244\276/\264 <%\350\014\275\373\032\262=\3403\342=\002\032\325<=\315\211:\350_n\276I\240\330\275Z\223-=\216%\252\275\277\224\202\275\231\365\017\275$J\310<\210\035e\275r(q<\267)\006>M\322c\274\005\005\276\274\320\032\026\275|6\240<=\221\007\275\210{\306\275\033T\022=3\342\212<\227\nW=\036\3348>\201\355\317\275\257y\246\275^\310\017\274\3255\205=7S%=?\037\014;E\035\261\274y\341\245\274\230G\013=\334Q\234\275C\324\321\275SYA=\366\343\021<\376\341\317\275E\257\237=i\275l<7\250<=\256\373\353=2\234\345=\223\2250>^\254\217\275-\033\377<\276\n\036>O\262c=\222d\223\275\320\326j<\331\t\276\275\013\343\202\275\360i<\275\031\217\377\275B\243\003>ZP\000=\035\343\240\275\322\276\267=>\252\223<@O\204=\372\352\301<4O7\275I\375`\275\304\316\305\275\321D\207=h\362\260\275\\)\3537\354\261W\276\255\207\250\275\326\345k\276\311i\000\276\222R.=\025\355r\275\244\235N\274nt\256\275Og\342=\214#\026>\254\0013\274)\346B\275\"\366\205=\356\022\346<\2670p\274\320,\025>\361M\203<]\251m=\266\251\r\274\345t\202\275\r\377\272;\243|\207=\032\334\205\275\235\333\200=\017\234s={\222\251=\323\023\344\274\315\177\220\275P\352\325\275\337\001\026>\300\351^<\361\000\217=\302\366\324=\022\2360\275\301J\033\276\010,\214=\032\305x=3\020H=\000*\354=!jV\274\010K\371=\304|\026\275?\010\354<\225\230\202\275y\317\035=\244a\016\276Q-C\274\251\010F=\016\310)>Lb\271=\243\216\302<\354\335p\275\336%\274\275\346\324I\274\247\244\205\274\234j\035>\034\2117<\222\326 =\211\nD\275\315^\212\275t\270\362<W\345?\275\337\022\013\276D\352\227<A\237\337=\320\224\217=f6\311<\013\025o=\325\325\352=\243\356\200=:\330:<;\364\265\274\375\tL>\"\214\252;\223]~\275\352|e=\2742\324<\017\315O=\330\246n\275t\023Y\275:fz<\206\366\343\275;X\310;\237k$\274\344?\327\275\324\225H=8\036i=\037\352\002\276\351S\245\2751\326\256\275\204(\037\275\2717\351\273\"@\343<S\302\020\275`\231\362\274%\2456>\216\205\325\275\030\031\300\275|f\331\275\363g\355<\000\271\037\276\360\362\211;\347sK\274\265[\r\275\r\317\243=\033[\273\275\033\003\020\274P*?\275#7\215\2753U\026=\255w7\272O\302d\275c\331\006\275\214\036\342<\347\310\246\274\244\373U=\245\231\307\275\312N\322;\315\333U\275\215~,\276\007{i\275\r\371\254\275S\202)\272-\003\321=\356\351%\276\272|\223=NKQ=g=\030>\321\035I\275\244P\000\276R\317\031<\346\324C\274\202\222\315\275}\341>=X\273\313\275\355\021\347=\346\212E\275\014a\034\274\374\035I>iy\025\276F\305\243\274\212\325\243=\337r\353=\245\231\227<k)\366<\357\326p\275\327?H=\341\240\353\275\353R\034>\201fH;\022k\004\275A\2304\275z\2169\274\007\332\027\276\216|n<\333\"\350<~\361[=\036q\231\274N/\320=\352\374\271\274\373S{\274\261 \245<i.6\275\323\357\035=\031\355\266\275T\302\007=\271\037V<\217&J=x\314\355\2732\013\220\275\031\013e\275C\273\223\275\375\347\200=F\3219\273 \231\241<\327\233\035\276\324V\003=\253\372\"\275}F \2765\260~<\204b\310\275\t\360\037=\010\261r\275\247\263\246<\222\014\343;\021\375\001=A(\206\275\221\311v=JUi<c\234\315\275x\273\256\275\304\000\256<2s\002\275\235\'\344\275,\315\234\275C\033\241=\316$\217=\275\032\"=\017\236\362\274\022c\242\275\222\372q\275\336\244\322<\331\271\242\275+\273\031\274\031\3552\273G\310\255;\345\r\216=\341}\236\274Sa\013\275f/D;\023\003\272\274\241\306\010\275V\235\226\275S\034\223=\215\307\261\273\014?\357\275\032\312\264=\2601\227;G\243\203\275G\272\013\275\t\310\232\275E\276\225=\357X|=\275\314^=\022\000\261\275\265\3675=\347\347\263\275R\317p=\322F\347=\377\235\240<T\2718\275Q<L\275W\261\030=\024\3021=\256F\202:r\336m<`M\261=\005]i=\201\332\017\275\335\216\312\274~\200K\275T\367\007<Q)g=\255\202d\275\352\032\273=\\\010\217\274\335n\026=\356\004p\275\361\364\237=\262\347\241\275\225%\t\275\300\317P=u7\005>#\376\226\275\323\266\274=\345\023\205=5\227$\275\n\313\331=\022a\333=f?*=\352\311\003\276\335\031\242=\230\210\206\274\235D\243;j\266\311<\211\324\024=\235\354B<\317\006p\275\336\324P\273\327!\235=z96=\261\010\201=\255/\352<\203\014\037\275u\227B=\350\342\020>\237\226\244\274p\206\200<U.\253=\342:\222<\345,\231=(\036\244\275L\022\372\275\232\214\200=\322\310;<i\336\214\275L\204%\275\276\335\240\275\004\267Y\275\261D\222=\005D];#\310\325\275\235|\263\275\3611+<\215\014\311\274\302\362\215=<\365\237\275]\317^\274\\\223\272==\016\301\274-\203\220\275{\"\375\274/\227h\275\252D\234\274\244\375>>\207\225I\274\'4\363\275\350\314\240<\220b\354<O\\c=\347\362\211\274\370\272\315\273\264\327D\274>\300\002\273\216\022\364;\nKl=\240\251u\274/\372\r\275\235\225\021=\345<\252\275\013T\320\274W\3771=\377\212\265=\036\214\313\273\221\220\333=*]\210\275\375Y\334=\376H\221\275a\334\220< ]\026=\253\252\377=k\241\320=\321,U=\344w\020\275\233\347\223\275\'\272\001=\375\027\300=\270\240v\273\265\243\021>\341\331\t=e_A\274\361z\207<\022\246n=jm\244\274c\2406\275\307\305\343\274\010\210B\275\306B\034\274R\215\027\276\340\rD\275\246:\213=!\235~=\340\350;\275\026\253\301\274;e\235\275\024\260\276\274e\211\'\276\0004\207\275\032\3260\274\037\246\264\273\254\317f=3\367\360\274\031# \275|V\213<_U>=\263[\217\273\243\364\252\275\367u\027=iQ\223=2\274\341;\026\316.\275:\207\273<\327\177\002\276Yc\017;6a[\273\205uv;Sv\337<\021<|=\357\310I\275\t\213\216=Er\231<\267\346\237\275 \270\203=\220\310\356\274\265hL=.\307Z\275\367P\201=\033A\221\275\304\321g=;\215d;YT\201\274\335\200\300\275,\021\206=1\314\306</\021\222\275\371\272\272<Hw\220\275\032Y\217\275#\304f=\006s\355\273\2538\354\275TC|\275\371\243\241\275\247\006\\\275\341\346\003<\314\276\355;P\016\216\275g\212\332\273\010B\\\274\271\362[=a\017\347\274\020\361\032=8\275\301:y\035\250<N\354\n=\007\306\277\274\274]\003=\2633\031\275\'\321\317;\276C\266\275\014\257-=p\332\241=\322it\275\340\0329\275\373$\\;\207\030`=\001$\014=Z\330M=/N\267\275\027\017\221=O\326\361\274\036\305\203\273\300\363\004=\357M\215\27353e\275 E\265\273\237\274Z\274d\250\026=\023KN<\005a\321\274\'\371\023=\274x\353=B^\010\275\242r\014\275\030\034\366<\010.\205\275T\371\t\275\372\2269\275\0101\2235a.B\274\322)\310\275_\004\201=\214]k\274\253\301\203\274\030\271\t;\216V\025=\034n\326<o\362/\275\232Q\022\275\260=\251\274P\310\003=\013\2331=\360.\223=\336\017\014\275vu^=*>\300\275\\\004\214<\261*\346\274\310W\325\275l\025n=\324}=\275\033I\314<\006(\215=\333\226\274\274BKu<\213\204g\275|\014\323\275/+Z=\237\345\036\276\034yr;\3339\277=#\327\360<\323\342K<J9;\272\333\216\\=\352\365\370=XB\325\272{\020\212\275\3118\361<-7\326\274\017\177\031=\210\255\345\274\002\207N\273\361$\373\273)\372u<\333fy=v\035\034\275\010\377\017\274\355q\014>G\021\340<L\343\001\275\375\222\362=\257lo<_\270!=\016\362\371=\324i\\\275\253\356\345<A\347\375<OF\202=|\357R\274\213,\023\275T\326\031\275\352m\276\274\277\032\211;\370\326\377<\274\360\024\275\375r\211;\214\2002=\214\317>=\001\225\230\275\224\317\272<\322\333v\275%\226\334=\273\0047=\t\317\031=&\357\003=%C\252\272m\350\224=OJ\334;\350\036\275\274\335\332\255\273[X\203; \362 =!\240\007>\367\246$= t\225\275\220Q\203\274\016\212I=N\377Y\273\377?\316<\247:5=\263\262\202=4\254:;c\177\213=\016\370 \274\312\006\303\275\356x\333\273\370E\201\274\345\023\201=1\221\307\275\317\026\215=\027t?;\376\333\374=1Hw<\3256\372\273sP\202\275\3751\356\274\325$#=9~\224\275;Y\025=\372\350b\274\202\307q\275\340Jd<\032l\331\273\026\3500=\340 =\275\263\350Z\274K\277\237\2745\344\201\275\010\322:\273[\255\327\274\207\024W=Z\205\t>;\374S\275\250;\374\274\027PJ=GQ\034<\267\326><i\\\322\274\203\237\017<B\'\222\275\325\355/<\311L\362\275d\231\335=\026\021\363\275\263\275\226=\341\316\215=W\327S\275\312\316\007\274\274-2\275$=\303\275k\221H\275O\204\324=\331F\t\276\036cU\275\007SK\275\373\330\264\274>\034\010=D\014[\2714eW\275\235\340\203\272UM\352\275r\210s\275A]\370;;\312M\274\255\275P<\370z\352\274\225\353\203\272ez\264\274\030\224\202\274\267rL=L\021Z\275\020\225\026\275!H-\275t\t\205=f\236\374;H\016/>\003\301c\275\255\241\372<\262\205I\275H\273\230=a\230\010<L\243\005=m\363\036\275(6\026<\344\315\034=\211\300\247<\271~$=\267n\220=\014(\315\272\345/\223<\025\201\021\276\236\222%<\'>\205\275\321d\225<\204\305\310:WDF=8K\220\274\335\267J<d\376%\275\255a\322<\344\254\372\274\307\272\201\275C\251G<\007\250\307;2-K\275\226w\032\275-\202\374;vL\334\274\366\350\031=\376>\244\275\274h\207=\316\302B\275\310\255\311\273\365]\314\274\316\341\014=\263@Z\275\rT\030:\361Q\317\274\371{\037=\344\337\224<\305\305E\274\r\001\277\274{\332\r\272\261\003{;\320\272\332\275\333\232_\274\264\366\267\273\n\003N\272\230u\311=l?#=\375Mf=\362\226+<\216\014\001\273\321:\204=a\243\331<\247\373\335=Y\266G<j\t\'\275\245A\223\275\234\327v=\266\212\371=\216\244\244\274K~\200\275c\331(<\377YO\274\261\342\264\275\306\324\265\275x\333\250\2743#\035=\355.\254\275\\\016n\273\265\352]\275}\023\013\276\213>\247\274#\2757<&[W\274EzT=\273bY=J\307|\275\004\221\023\275\321\365\265\273\226\2666\274\273\222!\274\321\232\021\275\241\033\217<\017\273+\275\236\021\362\275}P\026=7\256f\274\031\3112\274\216#c=\365Y\272<\214P\202\275\340u3=\003\361M=\277a\214<H\273\327\274\353\352\224=h\233F;I\023\233=\377^b\275\032\363#\274?\243 \2752\366\263\275f\216~=\2228\201\275m\025\022=\354{/=-\360\253=\0329B;\226M\207;u\252H:\004X\302\274\364\003\252\275\354\3257=RW\275<U=[\274\345\277\211<\371\344J=K}|\275iy\214=T\367\203\275\246vt\274p\006\274\274\264=r<\351I\371=\025\024\\=<\363+<q\206)\275\211\202S\273|N\235=\313n$\273f\"E\275\252\325L;Y\363(\275\365\3475\275<\204\257<\270o\331\273\220\221\306<b\021\017<Z8\222\275\032\207=;^\270/=\243+\231=h\305\273\274Z>i\275\267\016\001\272\222{\260<7\264H\272O$\210\274\312(\351\274y1*=\336\341\311\274\252\277(\275\247\217\t=\\\255\023<\336)\205=E\362\372<W\321d\275\242\006\036=\245V\245\275\313\356\210\275\016\244\\\2756\022A=sF\362\274\322=\275\275a\007\201\274N\"\231\275\355\3562\274@}\201=\250\345\027<\341\203\230=\r\234\226;?\231\247\275p\351\232\275P\362\225\273X3\262\274\277\237\016\275\274\304\017\275F\016!=\275\3535=\261\235&\275\255i\210\275\347\r\361\274!5\305\274i&\263;\326:\217=\300\225}=:\021\212\274\217W\377<v\020\323\273\3538\032=d\232d\274\241\333\000=\374A\337\274t\200\375\274>B\014\276\321\317\177</\260\210<\'95\275\273\t\235=Tu\217\274\213\361\346<\361\2622=_]\036=<\301\252<\305\353y=\373\342\002\276\362\240\377<h\030\217\275p\213\031=\214H\232=\005\374\210<@tC\2745[\210\274\014\245\255=\200H\240\275\253Tt\274\\\363\273=\314,\014\275~\004\034\274\002\030\003\275-hi\275\216\034\032<\264\005\221;\241\317]\275\340\005*=]i\002\275;\007\013\275;\364H<\213\2147;\026>\315\275\273\336\271<\"`\223\275ma\203=\365/4\275\224\311$9\225t.=\234A\222\275\331\270\025=c\315K=\331\377u\275#\324\213;\214\262\207;\322|H\274U^\342<\346S0;\251\367\377;f\252+=\276\376\350<\323\007\023\275Vq\234\272\331YK\275\371\304\365\274\302>W=\3721\270=>\245\306=\332D\202\275z\017\227\274\231\201\021=}\371\016\275\272\034\026<\216iA\275\024.\002=\251\341\251\274\357\343\243\274\270\256\201\274\216\214c\274A\213\376\275\260\356\033\274\001\2249=,{2>\262\313m\275\002\210\205;\315\276\226<\353\352\320\275\r\022\205=?Z&=\251S2=\305\262\010\275,<\300<\354\026\224<T,$;1\0141\275\240\351\220\275\216=\327\272\262${\275aG\307<a\t\336\275r\330A=+\221\027:\0053\362<\254\270\003=\206q\313<VK\302=\301\335\010=\003\231h\275\207dL=\375\220\000\276\377\333\205=\300\203-=\270\270\252\274`\020\201\275\255\374t\275\034K\211=?w\245=\022\316r:\215/u\274\256\323\310\272\341\"=\275<\246o=\271\374\345\2741\264\t\275\017\257\262\273\211\210\203\275S3\t\267F-X\274h\231%=\223e\027\274\260*\275<\250HR=\210\376\324;\260W\017=\335\'!=\341\274\027\275\317\241\t=\253\013|\274V\322\027>\254\330>=%Gq;\323}\302<\2130\356\275w\263g\275!\003\215=\255\033\335<\273,\226=\345\364@<\264\227;=\225\243\240<x\344S\275H\220\253\274\241\261\257\275\027\341\036=I\223y\275aoe=\230F\003\276\266\326-=\331\202\361\274\340`\234=\024\272J\276Bw.\274F\204Q=\206\232\342:\005\313\306>\277\005\032\274F\314\242\274\255\316\027;R\006\234=\246\007d=\224\332\233\273\000\237\013\273\251|\335\275\2364\230=\213\356\350=v\363\000>\244\037c\276 \376\232=@;\240=\007+\n\276tap=\224j\252\273\245\017\343\274)\030^=\272t1\275\301\246Y\275\313\360\212\273\243\215\350=\337\013\274\274r\332y<?xt\275<4i=\314\343Y=p\022\353\274\357\032@\275qM\035\275/\351\254\274\212J\020>\311Z~=\000\r\216\275]\250?=)\270/=\006C\014\275)R\n\276!\026[\275\023 w\274\0238\301=\243oQ\275\247\203!\275]\301\261=\027[\307\274\"\013\000>\020_\317<\2700\327:\226\204\240;\272\256\234<f3\300>\337\362m=*\n\305<\250\216X\274\277\321\321=(\301\335<\313\253s\275U\310E=\222\031\223\275\n\020H\275\023\022\257=\314\236\256\274]\307\014\275\213f\024\275o\020\022\275\362\016\233\275\245N\214=\276\347\264\274z9r=\374\3137\274\301l\226=F\252%;.\246\030>p8C<(\240{\274\300\303\260=\005\260\273=\333\366e\274\304\010\023=\346\275\301>LEi\275\233\374\316\273\320Ka=\326\242>\275\t\247\207\275ZG\202:d\271\356<\337\226\275<n\212\324\275I\313\300;\312\353{=\306\367\371\275Ak\222=\351\330[=\241\231\373<\214\257C<f\2227=V\313d\275\t\006w=\255h\205=\002\1770=Y*\265=\256\252`:\221 .\275\255\375\003\275\036H\201\276`5?\275\326\016\014>q\275C;\337D\213\274A\310x=\005Mn=\\4\211=\310\362\376<\376\"\200<F\nn=\221?C\275y\200G=\022m\222=\333\037\331\274\035\313\302\275\270.(\276\202\236j=\243\342\237<\221E\225\276\346\222*>\232#\337<4]\202\274\351\256V=^\321c\275\261\207\322=\217&s=4\223\374\275\250\200\357\274%[\326\276v\341\270\275\204\370X=\\=\336<%\202\352\274P\020\013\275 \007\007=W\2230>\377j\320=\232\003\377\274>;C=\312\330\241\275\302i\236=\267u%\275\324B+>\304\t\375\275\354.4>FY\240\275\267\260\224=\371\326\265\274M\013\252=\225S\226\275\027\223\006==\210\033\276\022\234;\2764\207\252\275*b\366:\002|=>\352Q7=\027w*=D\251$\275%3J:\330\014\227;\247\224\237<\332\364?\275\266GH<\\F\200\274n\367\026>\3262\007=m\r\263=\022\000+=\241\223\224:,c\354\275\227I\231=\306<\235=s&N=QA\257\274\200\\G=\311c\t\276\014\177\\\274P\223\226=c^\r=\010\227\t>\002\206\345<u\341\021>K\374\016\276\266D\013=\014U(<}\321\006=\236\240\017=v\026\010>\253\036\263;\014\246\360\274Q\023\325;\035hS\276\262\244\031=\233\350\177=-D\340=\345\304\224\275\373/\312<\271\034\302\274&pt=\213\242\271=\232\3450\275${\355\275G\317V\274\272\342\310=3m\200\275\261\014\274\275\366{\025\276\223\276G=\304\360O\275M7\027=\321[\243=G\244\027\275\324\254\202=\224\026>\275\215\266\002\276pd4=\377\236{\274\243\270\254<\274f\006\275Y\004$\275\t\325\305=4UR=\316L\013\275n\316\330<\0029\234\274\363KV=\327\005L\275\2241Z\276L0\267\275\tA2\274:\024\342=\336q>=\221\315\023\276Oa\236<\3142\274=+\347l\274\263\\\240\274\251\361\361<\300\244\003\275T\230\347\275\363\277]=/\310\031=\227\371m<w)\213\276\221Qr;\004pv\275wP\243\2755\264\310;+\210\225>N<7\275\000\356F\275\033V\262<\031P\032>\350\350\360\274\227p\211=\242\360\277\274P\302\000>8\304\261=i\362s\273\037D]\275\331Sb<\013+\264\274#h#=\200\326\300\275\260\204\017>y\307\342\275@\221\007<\320v\345:\264Z\235\275\246~\210\274p\005\275=\025\323W\275\234\334\206\276q\032\251=\350\364\264\275qIE=\3327\\=V\262\247=\267\022\'<Mc\030\275\033\024\222=\372\231\037\275\021\252\321<\262\353k\2769=\361<\305iC\274]\004\221=\316]\346\275\027\303Z\275]\200\273\275\211\271\035>R\311\004=\211L;\276\001\207\377=\307UL<\202\023\324\275,oO\274\204\227\322<\036\355A>\305\350\255\275\346\307\273\275 \025\344\274\014\240\216=\312\007\224\275\000Z@\276\024\341\031<\201j\235\274\203\277\322=\017S7\274c\261\010>\026\227X=\245\214#=c}\321\274\262\003\364\275\317\365\234>\022\203\\>\0040\314=s\336\320=\253\323\304\276\306p\007=\375\376$\275\254\367\230=\230M\231\275/\270(=\212\355\217\275N\016L=\374&\035\276\206\3170>\271E\343<X\002\320\275>\360\301\273J\t\361=\020\245\003=\304[\262=s\377\354\271n\325C\274E\035\206\275\203d%\276j\211\315\275\245\317\321=\037\023,<=\367s\274\002,\204;\2076\036<\260\217\r=\344\307\257\275\r5\"\274\243\027K\275w\252y<_\\m\275\000\344\344=F7\213>89\206\275;,\327<\361\373|>6\336\370\274\274~.\275\364w\000\276\177b\022\2762\010\233\274t\261\230>\350\234l=_\014\204>\037C8>#\255\022\275\0272\306=G\201\355\275\274\202\016=\356\307\275\275jt\003\275\224/\225<\010\301\204<L\340\227\2758\202\337\275\337\031\001\275\315\026\253=\004\202\214:\373\t\247\275\367R\016=\3077\r\275\202\351\035\275a\211\365\275\330.\300=_\333\033\275E\023\252\274j\222#\274\010\215\013\275\371\313\353\274c\307\025\275\206\252l=w4w\275\254\342\000<v\363\263\274\276\204\244=.\316a<G[\350\275\220\330\220\275LW\336\274\336\007I:?\203\264<\212\311|=Y?\000>\3018\221\275\363\217\216<\206\013\255\273h\321\221\275\271\260<\275G\036*\274$\374\303;\225$\005<o\266\252=\211Z\305\273\330`\232=\2720%\274\366T\305\275\031R\213=\267\277\265=\251%u\275?\2343=x\357\032\275\311\372\355\273oK)\276\356gO\274\221l\204\275\322\367c>\261h7\267\375\216\206\275\225\201\252\274H6\277\271\270\222\002\276Px\336\275\370\211!\2740\t\237\273.\3665=\010\2301\275\335\314w\275K\274R\275\373\001o\275jk\212<\343\037\333\273X\366\224=\344\033\350\275\231>L=\013\217\256=J\317\206<T!\004\276\002\013\265==\372\013>\t\300\\\275\2129\261=\312\333\303=\025\031\270=\344G\300<\323j2\275s\027\311=\214\303\r\274C\255C\275\375\0047=0\350-=\302\036\245<\262<\324=\321xE=$\340\013>H\n\002\275\357\374\265=\355\255|\275Vx;=\033\314\203\275JZ\r=\rB,=\237\303L\275\333\307\327<ou\t\274\203\364J\275\265w\322\274Vb\226=\343\r@\275\311\205]\276\307_\237=W\363\331;:\035\231= ~^\275G\323\007<\025\222\311\274\022\253\237\274\345\2569=\252\270\302=\233Z\205={\035\320\274\224\242$\273h-\022=4\321\203\275s q<\267k\246<,\334@=SX\017=\014\355\305<\177G\330\274\350\243\225\275\035\3138\275\021L\203\275\315\017\014\274\377\330H\275\205\224F\274d\322\t=y\306\301\273`\214\033=\033\252\203;\352\n\216\275\275U\366;\342\004T=y\362\217\275%@g=\016\323\215\275\244c\243=\334\263\200;\006\355\017\274\224e6\274\371\376\361=\030\313\237=\226\225\024=\257\263\334<\257\260\000=E\321\275=\001\246D<d\273t<\230N\234\274\201\374\036\276\315.\004\276\003\234\257>;*%>\341q/>>\035\263\275\023e\367\2747\030t>\2569\020>\372*\314\272Ca}\273\"F\343=_7k=\361C\252\275x\302\246\275b\034\323=\320:\020=}\244\016\272V.\025\275\334\320\251\275v\254\227\275B\010.=\236\266(=C\231\007\276\254\266]\275\367\214\305;aRO\275\374o^\274\036\231}<\014UD\271\217\345\003<\334\n\330<\277\367`\275D\003\247;y3p<S\214q=Q\237\016=\003\362\323=\013\270\300\275\024KP\274\332\251g=&\361\251=*\244\253<\351\214\200<\344=$\275T\302\371<o\303\034=w\202F<Z*\320\275C\330\312\275s\327\207<\225\004\242<\210\345\245=\177\024\035\274\222\356\330\274<\342I\275H\242I=\366G?\275ay\223=%\316~\274\033^\306\275E7\026\275\274\214[\274\362\205%<\332Z\227;\010\033\340;\241\343V;\323\267o=ez\003\274\200jN\275~\202x=\310\327#\275\263\020\"=2h\206\275\270\271\206<\215\006\t\275)[\013=\212\375\034\275L{\005;\'u\177\271\234H\031=\366\240}=\242\340\"=\306\313\017\275\355\373\030\275\335+\337\275\240\201|<\203\313\302<\231\232\362\275\3075\372:\002\314\223<\354\205\031\274D\303\225<1M\336<\343q\304\273\333\017i\274z:\237\275L\276f=\031\300\275\274\310y\267;X\233\362\275\023\230\001\275\226|4\275o\357s\275\2624\221;h\027\354\274\302\\\245\275\273\325\351\275d\321\261\275\372\370\232\272f\030\215<\267\034\027=\376U\255=&\027c\275f\321\257;\3104\316<ht\200<\'\356r\272\204\t\276\274\216\216\202<\212\3146\274\242i?<\277O\031\274\234y:\274\004W\233=\2225\r=\007\300\260<\213\017\265\274\000}:<\233EJ:\032x\205\275\223\341\236\273\350\323\244;o.\030>\376\300\261\275\024\365\206\274b\363\210\274\377\032\027\275\322\221\313<w\321{\275\345\022@=\014\240\016\275\364\364\307\274\270\213\032\275>\014U\274\325;R\275\246lR<\r\200\365;\251^\373;\"!\033<\212\302\227\275?>D=\261)\315\275\233\376\272\274f\342\247\274S\357\260\275\242\367,\274Bm\027\275\304R\316\274\367]T=K\r\334\274,\306\223=\022;\003\276![\233<:\t\356<cL8<.x\030=\320Q^=\202\352\350\274\326,\200\275\364\366\252\275\263\026\025=5;#;\260{H\275\013\265*\275(\257\327:\235\033\213\274V\203\213=Dq\201<\352l\215\275\364Vm=\364k\224=\034S\214=b^6\275\357\030Z\275N\320S=\376\247\014\276,[Q\274z\2255=\377W\007<)\272I=l\212n\275\220\305\001=\026\334\222:\001\252\220\275e\301\202=\017\332\264<\343\233\025\275M\020\335\270ZV,\275\267\340k\274 \253\342\275^q\223\274\243V\237=\352\361S\275a\373K;my\357\274\244\030#=\024\277j=\324k\266\275\022\000`<vG\"\274t\356\006>w\3302=\317L\022<\005\337\017<\033\0019=m \202=)y,=75N=#\"\311;\351*1\274\2674U=\360\216\025=H\371~=\267\223\315=\034\354]<\225\377\252\274nG\270\274\377\372\350\275\257\332\004=\3228\301\275s4\231\275J\271\313=\246\241\227<d\'?<cC\366<\221m\n={\314{<\002D\005<\270;^=\352\207\023<\335\301\270=d\350I=$U%<\212\244\t=-\257N=\307RZ<\313\013\274\275\300\324\230\275q\323\252=\252ES=N$\026=\212X.\276\300\365\320\275\251@P\275v\034\200\275\037\312\302\273\264s\036\274\306{\021=\343\350\360\275\324I\031\275D\273V=\372w\357=\224\301\315=\033J\232\273\002$\223<\363X\021=P,\204\275S$\324=#\030\210<\034Bt\274(\214\346\274v\342\010;\006\340\210<<\033\312\27517\211\275\223!w\275\246\034\313<\333|\254=\376\244\223\275C\275?\276\201\304\016\2759M\312\274Kko=\374D\245\274h\"G\274\372\207\264\275Q\237\252=\020t\254<\3515\034\275\217H\225=7?\231=\311o\354\274\316\205\301\274](\343\2746\272\307=\026|\246<2\3173<\224\274F=\036G\\\275_b[\275\304X\213\275x+\242\274\204b\225;\256\2655<\021\003\034< \373\306<\373\207\200\275\334\365\301<J\303\014\274z\317\211\275\332\202V\273\332\032\213\273G0{<\231=R=G\205v=3\274\341\273\3454\227=\357\344M<x\365\324\274+\264\250\2754\337\366\273\275FO<\000\253X\274\360\033\224\2749\230\345:\242B\023\273\207EI=\307\206\213=\231\373\256=\223\362\023\275yZ\007=\210\350\267=\364\240\236\274\223\236\007\2751\324\r\275\336\323\274=\216\215\355<\013\356\210=\302\226\225\275\032\374\204\275@u\232=1!\274=1\273{<\002%\327\274\235\274r\273\255\256\022=\017\250E\275Z\000\'\275\2219}=\340\270\251\273\371\3101\276\352\214\356\274UHE=\261e\206=\364cl\275\202\230F>\354@\233=\262`~=\342~\036\275\n\263W\276\277\035\272\273\313d\213\274\277\317J\275F\243d\271\3761\206=hM1=z\024P</\036\310=\013#6\2759\310\245;\271a\241<\034L\236\272;GT\275\321\177\023\275\215\007\231=\264B\336\274\\\237\372<\242\336\211=Q\'\252<\357=\230<\'e!=\375\366n;2\030\373<|*\247=\350S?=#x\333=\037e}=\356\177\326<\266\267&=,D\365\274=\211I;d?\376\275\336\342\005\275\300\310\273<V\306\030>#i\325=\352\371C\275\030\037z<\207\246c\275p8\320\275\202GN<R\\\210;\244\216Y>\3573@\275\247G\001=\347\342\210<\335\320\335\274\ni\246\275\313\352\035=\377\301\257=Y\317K<I`\242\275=\354\217\275\215\256]\275\033\253W=\356\004\030\275\006\371\207<\255{U<\\\245\213<\355)\363<^\033\324;\226\264\337\274\324,N=\214rc\275\302\333\260<&m\365\275\3222\221<\270~\273\275\336G\341=\023\230F=b\203\353\270\275\353\230=-\334F<\374\353\000>,\262K<j\233@\275;\350k\274\3563\000<\206\214\310\274\276z\244\275\247\231*=\237N\321\275\351\366\037;\241\367N\276\')\037\274f\\P\275<\234\245;I\315\215=\022(F;\262S\n>\226\325\000\276\234\206\200=\332x\232\275\3209 \275\227\260\224\276i\230\023=\255\230-\275\221\316\027<kl\237\276\373\362\024>ZW\360<\337\304\001=\272A]>WL\326\274\256r\234=+\031k\274\255H\022>\336\354\207;[\227\223\274h7\'=\363\267C\275A\315\277=>a\372<\340iL=\342.\264\275\251\344Q>\231_#>\234\276\310=\303o\214\275*\235\320;+X\265=,w\262\274Z\351\316\274\302\304\263<\370`\030=8\347\342=x>\010\274\025\360\324\274c11\276z\016\311\274_\003\237\275\232\330\020\276P\020,=\355rm<\nJ\244\275M\342\243<*y\226<P\341 >gS\227\2755%\262=H\365\010:\352m\251=\3301\324\274\274\3539>\030\257\n>3\005\004\2739\'\024=\016i7\275\252\204\226\275B\361\200=\235Z\335=\035\330y\275\330\376\301\273\364\300A=xS\370\274\245\347U\273c\232\234<{\325;>\300\341E\274B\254\320\275\351\247m=\253\206\262\275t\0166=\311F\310=n\337q\275USh\274\245\"\207\275\245\324N\275E\001\'<\\0K\276\302\235S=\023\273.\275\320\022h\275\321[\017=\305\251\216<K|\200\275R\004[>R\307\217<+\226\336\274\306\255\247<D\317\346\2755\350\236={\020d=\343|i>\271`L=\262\010k\275\276bJ\275\314\363\365=\277\002D\275{\221\240<\033\305;\275\342S\332\275\270f<=\006aF\274\221\307S=\254\300\223\275\271\222z\274\366\r\355\275\230\2201\275\033Q\000=\272\377P>\014\317>\276\300q\342\274\316\206\030>5\325\014\273\264\362C\275\340\325F=\253\333\253\275<t4\275\205W\201\276\002\036%\275%\321\211\2740\255k\275Kq\242<]\255\200>|\274\017\274\237j1\275\333\273\356\274\004\013\262\274\032\366\215=\325\330@\275_TF=\276\n\203\275\306j*>\337\3751=\203\031E\276\261\331\210\276\r\316\027<lN:\2760\030)>\201\252+\276\310|\274\273&@\264\275\260\271T\275\221x\246\272\210\313~<\202\352Y\276\214T&<\036/s\275fF*<\2029\001<\326$\021<\362g\005\275`\205\340;\246\202\247\275\275\037d\275\314\234\236\275\027.\206=.Cw\273-\323\376\274\372\251\211\274\017{O=\232\353\246\274f_\010>\033PB=\236D\330\274\337Dd\274G?F\275\235\354\366<Wd\022=\210\253\365\273?\tK\275\r\316\247\275#\006\200>;\316\353\275\037\243\302\275\243\301t\274\230\241\034=\001\314\033>R{\006<\377\261*>\254\366\r\276bEl=\261\304\244\275\217\006\221<\036\323\206<\331\326E\275\016O\273=[\313\254\275Xwb=\274|5<\241Pb=5l\207<r\245\307;\226\206\360\274\234\003\214\274it\351:\202\t\251=/-\222=\376\224W=\3347\002=\\\255\'\275{\217a<\321\217W=\201Z\254\273\003\254\226;\235\300p<3\335\322=\242\250\364\274\337\023\231\275\003\357N\275\244i\312;2\312\216\275\212E\250<\376\213-<l\257\201=Gt\033\274\267l>\272\nk\004\274\024\372\221=\024\031\311\274\013?\320=\215\205\336=\374\270Q=\002\361\316\274\036ZV<\330\247\257\274\354\032H=\201>w=\221\202\322\274L\255\330\272\317\210\006=6<\325\274k\001\243<\0315\261\274\334\177\231\2758\230\365=\r\2363<\263\272\267\275\212`1\275~\357+\275\352m\242\275\316yq<xr\337\275\375\033a\275\252]\315=W\253&\275\270\021\3049S0\217\274\025iU<\314a\016\275t\332\003=\023\235.=\205W|\275\rC\360;\017\304\271<\"\022\004=U\266\342\274\214\352X\274\330}K=\275\260\277\275\262D\300=m\202\000\274\241\376\257\275\306]\231<\334\362\216\274:\244\022\275-v+=P\371\232=\274o\213\274*\014\232\274\035?\362<4\235\306;\371\217\004=\254\025\341<\376\242\t=bO\202=\212s\205<\014<\317\274C\365\334;\027\271\260\274\034\216\215\274AF\324\2757k\345\274\257\205!=\n\235\005\275\224\205\265\273+\r\204\274\033\236\376:v\310W=S\205\025\273\332\237\376<\316\267\276=q\232L<\010\027\010=~\r\035\275\215\356\232\275@\366\227<0\303\323< A\305\274\241\324\244\275\253\025\251\275|Xg=u\332\302=\360\277\203\275\355Q\227=c\236B<\t\336K\275q\000B\275\311\271\374\275\214\374U\274\300\260r\275\374\322:=4\317\247=d\202\013=0K)=r\374\312\274\234\232\267<I\353\243\275\342\000\364\274\274\337\026\273\260v^;f\247\300;\360\220\031\272NZV\274\374\322\205\275\262\244,=\010\225\371\274^\225\200\275\303\000\227=\tt%\274\314+\\=\362S\023=\r\232O=g\245\325=p\270\326<\002E\214\274\0058\262=\003\237M;o\004#<7\t\002\275\327l\333\275\315\r\261=m\265\316\274Wn\023\274\351\365\221<S\336\306\275:\372|\275\005\364\301\2755\310\r\274\266\355\203\275z\231\225=\212\243\r=F\255\234\275W\352~\275\242S\233;&\206\013=Xz><\320\'<=1\007L\274\351}\227\273$\252\377<\305\321\250\275H\375\265=\204,\177\272\244\323_=n\343z\275\023\325\"\275\035\006\264=\230\272H\275_\322a\275\331M\212=HP\342=^\t-=d\334\205\2741Q\261<\033V\303;\364]\343\275D\007?\275y[\267\273k\225\257\274\032j\342\275y\n\203<\213-.\2750\321\311\274\017M\335;r\3735<T\274b\273~W\027<\202\266\220\274\241\257$\275~w\240<\353\317\251\274\256~\005\276<\016\333\273\010\016\245\272\037\367\214\2748\256}=\272s\024\275q;\373=\352\314F\275\024\017-\275w\313\020;\230\014\217=\232\255-=\250\177\023=L\322\220\275\306\224\002\272\003\315A\275\016\361n<\314W\035\272\\!\352\274\227OR\275\200R\250\275\261\302\264\275\347\267\344\274j\005v\274\251]\236\274#Z\t=0\307\204\275\315p\324<s\026\221=9\225\320<\312\312J\275\034\306l\274\313\257\212=E($\275\300\222\226=\343\265n\273!\275R=\263\020\261=g\3440\275\r\320\247=\214\337T;\336\242>\274\014\333\206=k\266\360<\215\003#\274ZmZ<\2062\302\274\201Y\267=\365\201\275\274\207\330\003=\220\036.<\222\261\343\274\313O\032\275\344F\265\274\330`_\275\204\325\211\274=]\347\273\230B9\275\t\376\267\273\203g*=\363\264\307<\375\227/\275\223\346\354;d\224\234\275\371\233\001<\243\242n\275\324\326\264=\250\021\326\2742\277\202=\264\375\'\275d\370_<\202?B=\264\301\325\273\333\321\r=\231\376\316\274J\301\303<\230\212\217\2757\201\336\273\216n\353\273U\203S=\007\354\241:L\222\213\275\212\0237\275=r#\275\034K\001\275A\364\367\273\341\313%<\250vw\274s\261\363<\005\305\244\274\361\016\250<\305\254<=3Yu\274:\354:<Y\362\316<A\222h\275\345\273\205\274\245\264-\275\002\332p\275\361\351\031;\305\035L\275\030\311\207\275Kx/<g\311\200=\236,\030\275<Pw\274\234J\227<\370\301\t;\354\314\020<\027\320\234\275F\032g<M~\017\276C\305\'=\026\025E\273\206\013\262\275\021\036\344<\275{T\275)\241\010<\234U\372\274\360\340&=\206\262\201<\306\2109<\341,\310<\343D\237\275\030\321_\275\374<\210<\323#\352\274\320\'1=\235<\234\274\365\267\354\273=2\031=p\352\300\275\244\322\r\274\2279\014\275%\177\026=\226\370\247\275\250\311\260=-?\225\274/G\322=\004\223\037>\274\261r\273\342eN=O\315V=\357Hx=\322\326\303<\376b\224\275\002\343\234<\241\346p\274;Fi\2753\353I\275\367\265K\275\357fw\275\256\231m=\2047$=\304\306\352;\222\001\207=5\\\304\273^v\200;em\257=\331\272\372\273\220\213.\275\206\215\000\275\235sg<F<\027:7_\\<\2170\204\274{-\267<T\315\271=\324\256U=P\201\264\275\263^\313<\210\321g;\027$\311=\316(\013\274\366\207\002>\376z\271<d\0236<\301\260\265=\312\3478=N{\216=$\037\014=\355\226\372\274X\222\244\274\244:\223\274\330]\363<\222\234:=V\364O<\013\013E=\353\271\300=\323\264\335<\375p\357\274OPI\275\261\005/\274\225\0023\275\303\234\304\274f\242\010\275g\246J=\027\317\212=E\346\301\275\262\\\353\274Za\220<\037\205\002=H\220\321;\344\2621\275\234\234<\275\003\300\251\275\350\275g=\240Z~=\325%\016=]\300\006>\337\317\266<\313$\265=\332\r\313\274\034\237P\274\232\243\227\275C5\347;Z\311\362\275[f\025=\014A\005\276]m\233=Q\234[=(\337\264<b<*<\216\310\313<\205J6=K\347\032\275\271\236\334=EN\206\274jh\231\274\343\244\026<t[|;@\2512\274\223\254|;\325\016 =\337(!=6\304j=\300g\302\275v|\007=o\2078\274/\007\311\274\222T\312\274\244\307\t\275>\224\303;Nb\371=\256*D\275\205\030\303\274\315\202\000\275\265\272)\274%Q\231\275E\336\302\274\270!\243\275\246\307F\275\353\350{=y\372\232\272R%\312=\347/\r=\006\322@<\2266L=`n\264\2742\270\311<\236A\344=un\022\275\034\002\267<\375\231\033<!;&=\265@\251\273q[\235=\351e\266\275Q\335s=^\351\341\274wc_=\361\236\026=69\344=\267\302\032\2756\325,\275e\n\267=i\207\212=E\335\212\275\357\221\362\275\310\311\222\273\335\237>\275X\365f\275\006\362\277\274W\203h<\037~\221\274z~\370<=C\261;\201\177\207\274\254_k\275\327\331\351\275l2K=\013\271\343\275\265\3558>{\030\277\274\007\014\002\275_\364\300\275\341\033\225\274\030en;%\342\014>\234\233x=\221\322)\275\334\007\236<\274\242+\275L\267u=:\206\224\275V*\261=d\352E\275u&\220\274\361\373\241\275\343\363\301<\240\367\272<\265\252N\274\321\241\337=\200y\230=\371g\017=\264_\255=\260\n`\276\336_\201;\335\031,\273\272,\254;L\314\003=n\215\364\275Y\230\230\275\374\250U\274(\031\266=H\264y=\204\313\032\275f\314\237\274N\005\020=\177\211\371\275\275\000\023\273Kx\236<C\301d\275\366\025S;\r\321T\274U\341\335<\332\200\342\274\331\026A=9\236 