node {
  name: "inputs"
  op: "Placeholder"
  attr {
    key: "dtype"
    value {
      type: DT_FLOAT
    }
  }
  attr {
    key: "shape"
    value {
      shape {
        dim {
          size: -1
        }
        dim {
          size: 4
        }
      }
    }
  }
}
node {
  name: "drop_out_rate"
  op: "Placeholder"
  attr {
    key: "dtype"
    value {
      type: DT_FLOAT
    }
  }
  attr {
    key: "shape"
    value {
      shape {
        unknown_rank: true
      }
    }
  }
}
node {
  name: "cvs/begin"
  op: "Const"
  attr {
    key: "dtype"
    value {
      type: DT_INT32
    }
  }
  attr {
    key: "value"
    value {
      tensor {
        dtype: DT_INT32
        tensor_shape {
          dim {
            size: 2
          }
        }
        tensor_content: "\000\000\000\000\000\000\000\000"
      }
    }
  }
}
node {
  name: "cvs/size"
  op: "Const"
  attr {
    key: "dtype"
    value {
      type: DT_INT32
    }
  }
  attr {
    key: "value"
    value {
      tensor {
        dtype: DT_INT32
        tensor_shape {
          dim {
            size: 2
          }
        }
        tensor_content: "\377\377\377\377\002\000\000\000"
      }
    }
  }
}
node {
  name: "cvs"
  op: "Slice"
  input: "inputs"
  input: "cvs/begin"
  input: "cvs/size"
  attr {
    key: "Index"
    value {
      type: DT_INT32
    }
  }
  attr {
    key: "T"
    value {
      type: DT_FLOAT
    }
  }
}
node {
  name: "input_shift"
  op: "Const"
  attr {
    key: "dtype"
    value {
      type: DT_FLOAT
    }
  }
  attr {
    key: "value"
    value {
      tensor {
        dtype: DT_FLOAT
        tensor_shape {
          dim {
            size: 2
          }
        }
        tensor_content: "\000\000\000\000\000\000\000\000"
      }
    }
  }
}
node {
  name: "input_shift/read"
  op: "Identity"
  input: "input_shift"
  attr {
    key: "T"
    value {
      type: DT_FLOAT
    }
  }
  attr {
    key: "_class"
    value {
      list {
        s: "loc:@input_shift"
      }
    }
  }
}
node {
  name: "input_scale"
  op: "Const"
  attr {
    key: "dtype"
    value {
      type: DT_FLOAT
    }
  }
  attr {
    key: "value"
    value {
      tensor {
        dtype: DT_FLOAT
        tensor_shape {
          dim {
            size: 2
          }
        }
        tensor_content: "\000\000\200?\000\000\200?"
      }
    }
  }
}
node {
  name: "input_scale/read"
  op: "Identity"
  input: "input_scale"
  attr {
    key: "T"
    value {
      type: DT_FLOAT
    }
  }
  attr {
    key: "_class"
    value {
      list {
        s: "loc:@input_scale"
      }
    }
  }
}
node {
  name: "sub_1"
  op: "Sub"
  input: "cvs"
  input: "input_shift/read"
  attr {
    key: "T"
    value {
      type: DT_FLOAT
    }
  }
}
node {
  name: "mul_1"
  op: "Mul"
  input: "sub_1"
  input: "input_scale/read"
  attr {
    key: "T"
    value {
      type: DT_FLOAT
    }
  }
}
node {
  name: "angles/begin"
  op: "Const"
  attr {
    key: "dtype"
    value {
      type: DT_INT32
    }
  }
  attr {
    key: "value"
    value {
      tensor {
        dtype: DT_INT32
        tensor_shape {
          dim {
            size: 2
          }
        }
        tensor_content: "\000\000\000\000\000\000\000\000"
      }
    }
  }
}
node {
  name: "angles/size"
  op: "Const"
  attr {
    key: "dtype"
    value {
      type: DT_INT32
    }
  }
  attr {
    key: "value"
    value {
      tensor {
        dtype: DT_INT32
        tensor_shape {
          dim {
            size: 2
          }
        }
        tensor_content: "\377\377\377\377\002\000\000\000"
      }
    }
  }
}
node {
  name: "angles"
  op: "Slice"
  input: "mul_1"
  input: "angles/begin"
  input: "angles/size"
  attr {
    key: "Index"
    value {
      type: DT_INT32
    }
  }
  attr {
    key: "T"
    value {
      type: DT_FLOAT
    }
  }
}
node {
  name: "dists/begin"
  op: "Const"
  attr {
    key: "dtype"
    value {
      type: DT_INT32
    }
  }
  attr {
    key: "value"
    value {
      tensor {
        dtype: DT_INT32
        tensor_shape {
          dim {
            size: 2
          }
        }
        tensor_content: "\000\000\000\000\002\000\000\000"
      }
    }
  }
}
node {
  name: "dists/size"
  op: "Const"
  attr {
    key: "dtype"
    value {
      type: DT_INT32
    }
  }
  attr {
    key: "value"
    value {
      tensor {
        dtype: DT_INT32
        tensor_shape {
          dim {
            size: 2
          }
        }
        tensor_content: "\377\377\377\377\000\000\000\000"
      }
    }
  }
}
node {
  name: "dists"
  op: "Slice"
  input: "mul_1"
  input: "dists/begin"
  input: "dists/size"
  attr {
    key: "Index"
    value {
      type: DT_INT32
    }
  }
  attr {
    key: "T"
    value {
      type: DT_FLOAT
    }
  }
}
node {
  name: "Cos"
  op: "Cos"
  input: "angles"
  attr {
    key: "T"
    value {
      type: DT_FLOAT
    }
  }
}
node {
  name: "Sin"
  op: "Sin"
  input: "angles"
  attr {
    key: "T"
    value {
      type: DT_FLOAT
    }
  }
}
node {
  name: "concat/axis"
  op: "Const"
  attr {
    key: "dtype"
    value {
      type: DT_INT32
    }
  }
  attr {
    key: "value"
    value {
      tensor {
        dtype: DT_INT32
        tensor_shape {
        }
        int_val: 1
      }
    }
  }
}
node {
  name: "concat"
  op: "ConcatV2"
  input: "Cos"
  input: "Sin"
  input: "dists"
  input: "concat/axis"
  attr {
    key: "N"
    value {
      i: 3
    }
  }
  attr {
    key: "T"
    value {
      type: DT_FLOAT
    }
  }
  attr {
    key: "Tidx"
    value {
      type: DT_INT32
    }
  }
}
node {
  name: "layer_0/matrix"
  op: "Const"
  attr {
    key: "dtype"
    value {
      type: DT_FLOAT
    }
  }
  attr {
    key: "value"
    value {
      tensor {
        dtype: DT_FLOAT
        tensor_shape {
          dim {
            size: 4
          }
          dim {
            size: 200
          }
        }
        tensor_content: "\361H\320=\341|\360=\347\203\303\275\340\361\326==\226\036\274\377I\264=\233\204\264\274\301@\224\275\344J\223=l\343}\276\3479\013;$0\037=\237@\016<\221\025C\276\006\360<\275\021\355\274<e\346\031\276Xz\254>\010l1>\344o\342\275\270\353\221\276\214\214\370\275\032\352*\276v\036\002?\271.\377<J\223\217\275e\221\347\275\264u7=mw*\275\226\024\013\276\210\272\333=\3122\356\274nz\213=\000\320\221=\301\033(\276\\\220\345<\014\316\312\274S\312\321<\033z\312\275\231\264\022> \277\250\275\257\373\204=G\016\205\275^\t\247<\322\350;\2734.\336\275~\017\200=)\375=\276XL\235=\277\340?>\035S[\276\341(\333<\031\366\314<\336XC\275\242\221\315<\214\022\227\276\312\312\014\276k\r\244=\240Z\350\275\323\370a\275\327\037\340\275wMe\274\253O\236<\343\305V=AW\225>\352\016;\275\000\376J\275\230I\276=\022\361\244\275.G@\276\307\216J>IF\242\275\224q\036>\276\254U\274\006\307\214\275N\300\237>\213\357M\275\270`\303\273\210\357\310=\214\2366\275\301\206\027>E\241\261\275\211\315\257=T\336$>\311b\357\270\345\223#\276\357\263\214\274o\337\330\275\230\304\016>\374xU>Y\270\330\275t\262\234>\347\374\354\275\245\034\001\276\020\323\270=/\360\217=\305Gv\274\\\207W=\236%\037\275\033\3633=\366\036y\275Amx>TA_\276\202\331\322<c5?=+\322\320\274]/\374\274\272O\337=Gj}\275\307\316\307\274\261\2423>\321\204\344\274\204\006\222>\027\261\201<\"\023\363=M\226\271<\342/\306\275\037;3=\027N\334<M\003\256=Uf\322=y\315\034>\263\216\364=\363\272>\275\326\273\364\275\373i\003<\362t\024\276\367Y\360\275Z\241\010>}\226\326=\030/\r\276r{Q\275ri\245=*>\267=\202Q\014=\324*&\276\\Y\001=\323\214\200\275]\355H=\014&\230\275\273\262\263=\014\"g<Y`\266=\354_+\276\000\245\264\273N\000\254=\3670\310<\2425\211=\030B\216=\275\373\247\275*\257-\274[[\340\275f\271w\276\250\355w\275\357\304]\2753\376\271\274\317\375\036=D)\000=\215#\226=\344V\026\274\014\227G\274\010S\203\274.M_\275\342\336\362=\242\340\353\275\323\316\321=|\377\231\276\035]\020>\372\220R>V\023\327=\223<\344\273\240\377\016\275l\376c\275[6n>\271\323\231\276\001=\306<l\014X\275t\300\035\276\362\222\300<\256\210,>\261\030\n\275\366\203\246\275\376\372\255=\320\310\222=\216\346i\276\336\227T=\007\364\023<M+0>t\002t=0d\2729\231 \357<\020\223\231;\302\205\024\276\262\220\365\274Ud#\275M\316\"\275\360\212\002>\372\225c<\007\352\301<\336\344\321=\300\321m=\310\n\227<R\270\336=K\206v=\351\311\221>y{\021\275<\224\250\274\267\255\222>\020\007*\274\355Z\017\274\300.Z<\344U\240<\325\204L\274\324\n\345=\274\236L\276\367\304e\276S\347(>\261\355\212=C\025\352\274A:e=\314\207?\276u\333\312<\230\271\004>\220\3235>\244\002\007=B\254\215\274\t\343\302<\377\251\235<>Ad;\'\263\010=#G\225=V\226\362\275\3425\336<\352\232\333<\210\271G\276\373\346\305;\223D\263<\301\032\033=\324\321E\274\354R\"\276\214\226\276\272C\311D\274\2340\242\273\262Oe8\030;\352=\005\215\350=\203\343\212\275\r\353\027>\227\030\026\27624G;\371G\237>+U\3239Iw#=\263\365\213\275\370\232\036=\024\376\212\276\232\356\267\2757oE=C\255\263>\036\227 >oI\240=M\274\024>\032Su\274\361Ct\275\325B\311\276G\311?>j3\261=\250h\357;\327\2220\276\177\234\350=(>\317=\023H.=xx\321<\030\014d\274\214\220V\274Y\257:\276g\232\223\274W\206\004\273=\215\377<r\302\023>|\315\237\276\331\024\215>-\021\232\275\222y\206=\3276\331\274\240Kl\276\3421o\274\357\010j=M7\341\273\313\007f=\267\354;\276\225\274\206\2760\344p>(\347\232\274\204Z\002\275\230\245A>=\304x=\022\'\305<\221\265\007\276\223\276P<\347\340O;Ifk>ub\\=\310y\213>$\266^<p \303\274\035\236\205=\032\206\244<Y\331s;X\350\274=\336\022\233\274h\230\220\274D\356\026\2764_6<e\224\221<78X=\'\351$>\223\351\226\274Ts<=@\020\364<I\227==\r\260\332=\244\324\030\275\326\370Y\276\264\230\345>\005\030\226<J3\020=\302\221\242<F\023Y=\021q\216=\351\306\350=\240n\337;b\262\005\275l/U>\317,+\275\010h\021>\177w\266=#$\350\273\356FY\276\221\351\344;q\240\277>\\\312\204\272\273\357+=7\'\276\276\363\343\234\273.}3\275g\243_;\\^4\275\361\257\317=\235\354\353\273\276G\314\272\250\367\275=\320R\267\275I\363\000\275k%`\274\256\371!\275\303\257\005<@\377\370<\373D\274<\321\250P\274\321\367I=\347\304\034\274\315>\"\276}\343Y\275\177\020\031>\303t\274<\265\237\235>HM*\274\254G\271=T\241-\276\025=\264;\025\241\242\274]RM\276S\273N=\227\317D>W\306\207\275\032\023\242\275c\340\222>m\212,<\377\006\020>\023\010\203\273\016\036\233=\rU\006\276\332D\370\273\016Y>>\017i\001\274jB\263<}\205\022>d\333\240;\261\262\214<:\021`9\260\215\t\275&\261\224;.kF=\033\037S\276\263\3207\275yx\351\274=\n\372;\370\261\302<\305z\237\276\322\364n>g.\216<l\316c;\310\245G>+\372S\274\306\0079>]|\255\273\237\221\'=\t\366)>\341Q\247<\333+\256=7\273\332=BD\006\275\340\313\227\276)^o\2748T\314\274\020f\253\275W\352\200>6\206\037=\022\330\013=\250\222|=o+W\275i2\204=\261\211\363\274l^\327=$<\033\276\300\376p\276\213\207\375=[I\001\275\032%\260\276\347\237X>\314\023\006=>_\">QE\'>\365k\243\274\224\022\256=z\214\237\275\264$\275=y\273N\276e*\352\274j\237\200\276E\326F>\020\r\303\276\254\345\002>\225T\304\275\210\220\235\275GU\336=\2716\250\276\360\273z>\217\366\034\276XYd\276G\233\217=\005=\000>\265\365a<\006\237\344<c@\023=\262#\251\276=Y]>&2\260\274\373\000\377\273\315\200\331\274\344\374\013>\263o\230\274s/\230=-*-\275\000\240~\273\333\246\273<\344\353l>\357\262q\276\246\034\374\274\342Z\005=`V\206\276\225\264\244<\032\217O;\\li\2761\342-\276\354|\347\2759\336\247\274\245]_>\036\304\030\273H\212\233<\026Uk\275:\215\206\275{6\255>4\032\301\275gI\023=\343\265a\275h\024\253\2760\246\266>Q\237D>/[\202<\"\206\350\275\343V =\2512\215\272\267Z\213>\210\215\255\274B{\201=\301\332\024>\266\017\370\275O`\362=h\207\020\2766Oz\2740\354\320=^\202\333\2749\303\306=\213UH>\222z,\276\001Yh>\336s|\276\2369\013=j\037\'\275x\304\233\275)\3628\276\372&\311\274~ix>\\\300\364=\032\016\371;^\000\212\275\007\271\317=H\217|\2755\360z>\240\204\365\275\221\246\261>\031\277\351\273<\t\001\274\207\260\300\276\335^\215\276\307\265B=\314\007\200\2758\302J>\007\032\243\276\024a\227=\357K:>\':\031\275\315\316><\225\360s\276\000\257\277=s\314f\27695\335\274\353O\213\276\177\207L\276\261S\t=1\021Y>*\234^=+-\233=,\256\257\275g\3669<\235\240@>\016\265t\275\332\261\326\275p\214\t\275\003\264\204\276\t\377\274\274v$-\276\332\253\030=J\243H\276\033T\275=\035x,>s\3036>\t\346\025>\207\251T\276\021\304\324\275J4\325<\036\250u>\325\336]=\324\177R>-\270:\276\004\217\372=d\010L\276\232\311]\275+\226\203<\200qo>\254\235\245=\214\346\364\274\356\263\247=E\360\215>\221\033\037=\357\3577\274\307\306\234=\003\222/\275\324o\332>\310\2721=?e\r=\005\tU>\020\304\177=\242\340\263>8\003\302<\232\3175>\247\350\030>\272\010\255=\263\204\006=S\324\001<\263 \026\274Pf\'\276\000.\204=\362\304\200\272Q\224\205>\031\"\016=\322\343?\276@V\202\275\000M\206\276\"\000L\2766\273\027\2750\\\261\274\225\017\267\275F\374$\276R\343\351=\346`\365\275\022\302\347\274K\206E\275\017zf=#U;\276#.U\276\211e\254>\316#\010\276\206Sv\276\274\0271\276\2373\223<\303\3241=Z\031;\274\256c@\272J\006D\276\312*\333\275]\362\017=f)\211=\335\303\257\275]\340\014>\3043\020\276\010bb\275\340\3744>&MP>\353\332\324<\244\243\321\275\356\252\221\275U\334\240\275\001\222\204\2757Z\247<\220\332A\275\354\271\027\274l\345\330=\303\226\225=&\363|\275\343z\300\274\373\211\351=(\224\246\275\310\206\t>\002\027\233>d\201\234>\270\246\202>\0255O\276ON\346\275n\312S=\222\372p\275\217\230\311<\365\010\212;\357\203\321<\257\370\025>\252zv\2751j3\276\313@\212\275\266c\002=\230^Z\275\236\240\231\275,\334Q\276ig\211>\000\227k\275\235\357\332;\2022\222:x\203\340=9b\257\275\010\332\276;\325\036/=\276D\017\276\257ku<s\273\224<\357\345\236=\311\341\204>}o*>\351\325\025\275\263Q_\275\355y\">\316`\330\275;\236M=\305\274-=\0235$\273\376\245#>\304\321\025\275?\246P>uL;\276\262\272\343\274]\014\312=\346\343#>V\243$\276\013\365\025\275M\230\301\275]J(\275z\'\007>\210_\024\276\276Bf\276\362\"\033=W|\224=\347\'\355\274\277 5\275o\253\206\275M\254\305=\336.\000?vv\270=\206\010Q<j\256\n\273\350-\002\275\301\243/=&s\010>\273\204\207=o&\233>\342J\227<\241<\302\274\352m\204\275P[\007\276\207v\031>\010\300$=\327Y\257\275\n\312d\275\004\030\363\275v$\321\273\360\241~\276kx,\276\033\212T>\316u\230\273S`\310\274\003\030\241>\300\177l>NR\254<\030` \276;\350P\275\270\037\201\276\271\374\337\275\\/\207>\261\213\315<]m\251=0\257\351<\342\304\225\275V\342\227\275\305s\205\276\034\257\321=i\347\014\276\322\016\200=\327A\360<l\246\267\275\233xo\275\234Jk=?\210\242\275\teN>\013*\323\275F?;>2\261\324\2744\305\334\274\353\332\247\274\201\356\">[\317\220\275K\221\365\275\202\'{=\010iW\276\215\271\017=\262I\222=\312}\301\274\226\267\202=\250\031\216\276\232\242\260\274\256h\241\275\373\242\246=\013n\201\275\220\200n>\236\330n=\267\327\301<:\235\014\276,\"h>4\321\251=\001\204\'\276\000O+\276\247\342\314\274\004\332\200>\337\364\376\274\356M\237\276\251i\230\275\020\020\261\2755\312\337<\271P\010\275x\234\356=\364T\202\274\374=\310\275\270\243\307;\371@\311=\316\352d\2759\227q\275\376)Q\273_b_\275\3764J\276WU\006\276\000!\306\275\2736\242\274"
      }
    }
  }
}
node {
  name: "layer_0/matrix/read"
  op: "Identity"
  input: "layer_0/matrix"
  attr {
    key: "T"
    value {
      type: DT_FLOAT
    }
  }
  attr {
    key: "_class"
    value {
      list {
        s: "loc:@layer_0/matrix"
      }
    }
  }
}
node {
  name: "layer_0/bias"
  op: "Const"
  attr {
    key: "dtype"
    value {
      type: DT_FLOAT
    }
  }
  attr {
    key: "value"
    value {
      tensor {
        dtype: DT_FLOAT
        tensor_shape {
          dim {
            size: 200
          }
        }
        tensor_content: "\327\035\022@l>\354\2761\230\241?\202\350U>\026\202\024@\351\014V\277-.\005?$\r\251>4\3431\277\212\225O\277\\\305K?\257\321w?\204\357\217?X=\236?\021,f\276\350\025\360\275\377L\246>\t\312\300>I{\325>\214\013;?\002P\255\277u$\315=\307\017\263>!\306\352?\252\261\252?\006\304;\277\377\002\030?2\245;?\023\271\014>\300N\323>.P\307?SD\024\300\364s0?(Z\220>-\3258\276\267d\216\277\323\357\266?\224\212\370?\336\320\365\276\036\314\367\276\n\205\t>\264\313\031\276\341\004\226?\217\\\357\276\267\363\032\277I\0048\276\350\007r\276\243}\321?\252\271\261\275\251\rD\271\205\250\263=r|0\277\262\260\262>l\236@?\037\226w\276\256\245\273\277d\267\346\277\204s\227>9\347\260?\302\246o\277\310%|\275\374\010b>-\031\303?\327\253X\277n\376\010\300\315}\220?\212v\017@\214\237\250>8\260\233\276=\233h\276\304\001~?\325\030\317=\213:\016\300\356\331\216?\371m\031<9\017\271\277/\252\262\277\215W\336\276\214 \275>\324\362\301\276\n+\356\277\352\364t?1\256\330\276\"\370\303??G\267\277\313\323\"\276\t\t\316\277.\023\317?\334\030\237\276\227\373\215>\363\344\007\277H\003\237\277V\375\350>|\322\315\277\030\322,\277\207S\205\277\\\036\201?\217\226\261?*\351\014\277\227D\335>\324\t$>\240\324\007@\264\263f\276\236u @\322\330\341\275\3453\351\277\370\363\332\274v\314\326>\361\366Q>J\335\206\277\035\263\360>\242\275\330\276$\215\264\277\026\343\310\277\230\277\332>\2641\323=\235\307\226?\372\350\345?\020~\265?k\267\215\276\346\357\250?\250;\375\276o\266\351\276>\260\303\277\2258\331?\205\001\213?\353d\334>}_t?\352\253\272\277\235\331\322?\335\214\241?hVV?\235]E\277\026\356\014?\320\270Q\277\020g\320\274a\032\247?=\200\347>\0202)>\036\037\242>\021\003\241\277\253\352\204?\345\246\263?=`\311\277\216\310w?x\0137?\2351\334\277\317\302\002\300\340,\216\277\002\220\'\277\"\022\021?\304\274\000?\253\314\177\276\265H&\277\256@\246\277\232\224\335\277x\226$\277\362\006\233\277\226\311\342>\035\341\010>(\271\016\276\242nh>\006\361E\277\021\005\313=\302U\323?\304k\002?\022\204\255>W\354\253=\014\010#\300-\032S>\351\0043?\224B\310=\365\247\177\277\334b\032?\033\203}?\365/2=\356i\026\275\005z\235?\026\367\314?#eK?hO\231\277\260X}?W\301\357\277\253\036\305\274\217\355\331??@9\277\250E\177\277\236\177C>\236\321\241>s;\t>\207F\272\276>B\310\277\264Ht\277\221\'\205\275\361p\353>\232\005\251\277\336.\265\276\266\006\013?F\0273\275\020\351\211\276"
      }
    }
  }
}
node {
  name: "layer_0/bias/read"
  op: "Identity"
  input: "layer_0/bias"
  attr {
    key: "T"
    value {
      type: DT_FLOAT
    }
  }
  attr {
    key: "_class"
    value {
      list {
        s: "loc:@layer_0/bias"
      }
    }
  }
}
node {
  name: "layer_0/MatMul"
  op: "MatMul"
  input: "concat"
  input: "layer_0/matrix/read"
  attr {
    key: "T"
    value {
      type: DT_FLOAT
    }
  }
  attr {
    key: "transpose_a"
    value {
      b: false
    }
  }
  attr {
    key: "transpose_b"
    value {
      b: false
    }
  }
}
node {
  name: "layer_0/add"
  op: "Add"
  input: "layer_0/MatMul"
  input: "layer_0/bias/read"
  attr {
    key: "T"
    value {
      type: DT_FLOAT
    }
  }
}
node {
  name: "Tanh"
  op: "Tanh"
  input: "layer_0/add"
  attr {
    key: "T"
    value {
      type: DT_FLOAT
    }
  }
}
node {
  name: "dropout/Shape"
  op: "Shape"
  input: "Tanh"
  attr {
    key: "T"
    value {
      type: DT_FLOAT
    }
  }
  attr {
    key: "out_type"
    value {
      type: DT_INT32
    }
  }
}
node {
  name: "dropout/random_uniform/min"
  op: "Const"
  attr {
    key: "dtype"
    value {
      type: DT_FLOAT
    }
  }
  attr {
    key: "value"
    value {
      tensor {
        dtype: DT_FLOAT
        tensor_shape {
        }
        float_val: 0.0
      }
    }
  }
}
node {
  name: "dropout/random_uniform/max"
  op: "Const"
  attr {
    key: "dtype"
    value {
      type: DT_FLOAT
    }
  }
  attr {
    key: "value"
    value {
      tensor {
        dtype: DT_FLOAT
        tensor_shape {
        }
        float_val: 1.0
      }
    }
  }
}
node {
  name: "dropout/random_uniform/RandomUniform"
  op: "RandomUniform"
  input: "dropout/Shape"
  attr {
    key: "T"
    value {
      type: DT_INT32
    }
  }
  attr {
    key: "dtype"
    value {
      type: DT_FLOAT
    }
  }
  attr {
    key: "seed"
    value {
      i: 0
    }
  }
  attr {
    key: "seed2"
    value {
      i: 0
    }
  }
}
node {
  name: "dropout/random_uniform/sub"
  op: "Sub"
  input: "dropout/random_uniform/max"
  input: "dropout/random_uniform/min"
  attr {
    key: "T"
    value {
      type: DT_FLOAT
    }
  }
}
node {
  name: "dropout/random_uniform/mul"
  op: "Mul"
  input: "dropout/random_uniform/RandomUniform"
  input: "dropout/random_uniform/sub"
  attr {
    key: "T"
    value {
      type: DT_FLOAT
    }
  }
}
node {
  name: "dropout/random_uniform"
  op: "Add"
  input: "dropout/random_uniform/mul"
  input: "dropout/random_uniform/min"
  attr {
    key: "T"
    value {
      type: DT_FLOAT
    }
  }
}
node {
  name: "dropout/sub/x"
  op: "Const"
  attr {
    key: "dtype"
    value {
      type: DT_FLOAT
    }
  }
  attr {
    key: "value"
    value {
      tensor {
        dtype: DT_FLOAT
        tensor_shape {
        }
        float_val: 1.0
      }
    }
  }
}
node {
  name: "dropout/sub"
  op: "Sub"
  input: "dropout/sub/x"
  input: "drop_out_rate"
  attr {
    key: "T"
    value {
      type: DT_FLOAT
    }
  }
}
node {
  name: "dropout/truediv/x"
  op: "Const"
  attr {
    key: "dtype"
    value {
      type: DT_FLOAT
    }
  }
  attr {
    key: "value"
    value {
      tensor {
        dtype: DT_FLOAT
        tensor_shape {
        }
        float_val: 1.0
      }
    }
  }
}
node {
  name: "dropout/truediv"
  op: "RealDiv"
  input: "dropout/truediv/x"
  input: "dropout/sub"
  attr {
    key: "T"
    value {
      type: DT_FLOAT
    }
  }
}
node {
  name: "dropout/GreaterEqual"
  op: "GreaterEqual"
  input: "dropout/random_uniform"
  input: "drop_out_rate"
  attr {
    key: "T"
    value {
      type: DT_FLOAT
    }
  }
}
node {
  name: "dropout/mul"
  op: "Mul"
  input: "Tanh"
  input: "dropout/truediv"
  attr {
    key: "T"
    value {
      type: DT_FLOAT
    }
  }
}
node {
  name: "dropout/Cast"
  op: "Cast"
  input: "dropout/GreaterEqual"
  attr {
    key: "DstT"
    value {
      type: DT_FLOAT
    }
  }
  attr {
    key: "SrcT"
    value {
      type: DT_BOOL
    }
  }
  attr {
    key: "Truncate"
    value {
      b: false
    }
  }
}
node {
  name: "dropout/mul_1"
  op: "Mul"
  input: "dropout/mul"
  input: "dropout/Cast"
  attr {
    key: "T"
    value {
      type: DT_FLOAT
    }
  }
}
node {
  name: "layer_1/matrix"
  op: "Const"
  attr {
    key: "dtype"
    value {
      type: DT_FLOAT
    }
  }
  attr {
    key: "value"
    value {
      tensor {
        dtype: DT_FLOAT
        tensor_shape {
          dim {
            size: 200
          }
          dim {
            size: 200
          }
        }
        tensor_content: "?\253\207=\227\362\202=\025>P\275\311\201}\274\226\222\016=\211q\304\274\244\031\274=\256\231\364<#\351G\275\225\022\202<\330$3\275E\201W<gTj\275VJy<fU\035\275\354\353{=\363\363b=\201\303\217\275N\340\227;\00105\275\376\234\275<\250\366\333;\375\342\363=\2736\316\275;\231=\274IR\265:\374\200o=\032R\301<\247\265?\274\3051\250=\314\277]=<\366H\275\030\217i\275\303\361n=G\003\333<~\377\001>,\3561\275]s\236\274L\220\025>\376@V\274\346\257c\275A\202y\275\356\345\344:\334\277o\275\243\337\203=2\340\210=\222 \247;\312\270\272\275\341\265\036\275\243\267\200=2\010\306<\251\274\r<9p\276\2747\005e=f\010\202<\341\316\250=\177\022:\275\327{\362<\343^\307<\225\367\031=\"\253\206<\002$+\275\227\360\014\275\226\264a=\205\033Z\275\032\345j\275\267Y\007\275\\\347\200\274*2\346\274\302Y\270\272\255\251\337;5\307+\275J\332\277=KI\222\274\0344\272=\"\251\243<P\240S\274\335\201\3149\367\001f\275#\241#=@t\017=\013\260\356\275R\367\301<\212\317\342=\312\341\306\274\333\321\247=\000\335\276\275\211\365j\273/kD\275\210@0=\212\217\207\274\372\234=\274\267\231\013\274,\\\276<\334\246\r\275\225\234\250;\357\013]\274\257\371\210=\010\334\005=:l2=\252;_=\037\366\221\2756H/=:)N=YQ\337\274\255\304\257<rky<\"Q?=\373\271\005\275\270\355H=\037\326%=a\353\213\273-\"\355\2743\251\031\274\254Ns<\210\224P\275\335\021\325\273\034b\221\275pNh;b\247?=\356\3161=\311\242g=\271\355\014\275\222\310\365=vBF=\366\201\037\2755\217\264\274\366P\217\275\327\201\226=_|0\275\316P\211\274\321\240.<\024\")<\354\254\217\274q\0209\275\251,.\274W\345\242\275C\354\276<\314M\252\275*\376\025\275\0204C\275\270\302\273\274u\037\211\273Q\341\220\274\350\305\214\275m0\254; h\356<v\n\363;\016\361p<\320\005\263\274\323*\006\275Pj%<m\365\222=lu\244\273\260\233\353\273\003\014\263\275t\327-=c\200+=8\177\311=^\033D\273\220\237\306\274r\272\342\275\332\2377\273\315\023\177=\233\\\340\274g\265\317\273\254`\232=b\313\327\275\314\362\220\275c\007O=\346\252=\275]\002g\275\265a\005\275s\247@=\036\2044\274\220\034\226<DB\005\275jC\034=`>\277=\024_\252\274o8q;Q\276\321\274\373Q\033\275\215\247.<\347p\215\275\245O\202\274w\213\246\275\217\234\217\275\'\354e\275\314A\033=V\221L\274\024=\200<\3140?<\350\375\230\273\302Z#\275$)\355\273`\254\363<\355fZ=k\230\206\275\001-\256\275K\252^=\235\237t\275\256\271)\275O}y<1\000\021\275\301C\246<b{\036\275K2\330\274\230\300\330\275gN\002\275\021\213\206=zF\221\274\001\304\233<:Z\266;\200\242c=\236\212\340=\207Q#<G]\210\275\014\370\014<\225\322\313\274\r\020N\275I\250\010<:\235\372\274K3\037\275\266\'\322=d\'Z=\304\345\227=\001\233%\275\257\262\340=Q\267\2119X\361\001=\n\032\n=\261\247\255=\362\250R=\026U\216\274\307\321\270\275x\277H=\010\304M=\366\244\214\274\251z\220\275\221\037\232=\007X\231<\351\262\231<F\331B=!\357\324\274\324M\225=7\205x<\027\357\330\274\035\206E=O\276u<\377\221\321\275\330E\035=\240\026V\275p\201\230<\307\364\317=\300\217\250;\010\263\007>\337 o=\324\317\367<\225\002\351=q\'\263;\325B\255\274\372*\026<\242\246\233\275\352\373\'\275\3350\205\2752C9\275dz\310<\r\212k=\373\204\t\273\n\231\212\275\366\260\275\274\257\253y=_\301\230\275c^\327\274KS<\274\233\216\251\274i\003\016:u{\276\2729\032\023\274`\333\314\274\036\3438>Y\023\220\273\343xi\275\r\2413=\361\252\211<\"\257\340\274\322\345<=G\037\351\273\354G\226=b\220\323\273\234\271\r\276a\336\241\273\270\367x<\301\027\010<q\2533\275\r~b\274\031\352\270\273x\272\316\275\035\300\365\274\nX\215\272\344\244\353<\r\245\241<\254\0233\274\203s\325\275\217ns\275\320\375U=\275\325\263<?\202\274;\366\371\313=\261U\021=\352[B\275Z\244\255=\003\327\254\274\215\277\010\276\035_\300=V\215L\275\266j5\273\026\271\205<\355r\304<F\251\222\275\371n\360\273^\005\225=9\350<\275\207\346\325;\306\322%=\204!\225\275\r\3232\275\346\206\271=\255\301\347\274\036\345\007\274;A\303\274>\023\024=\224\347Z;m\372e=\'[q\274\347\203-=\313_\310<\357\246-=(R\307\275\354](=\013\232E=\361\031\263=\277\256\217\273J\006\345\275\341\235\317\275\205z\212\275\0314\361\275\n1\n<\312\344\201=x\327\027=\215\363\034;}\034\204=p\237\277=\334\034\205\275\230^\n<@\273\3479\004wX\275\014\014\310<X\337m\275\244\307\240=\200\255\215\273\262\361\251\273\355\001,<\227n\363\274.\370\357=\267s\206=\266\236\030\275\002\022S=\006i\254\275W\'\273\274c#N<FL\231\274\203\372\242<\313\360\000\275C\020\306<mu\257\275\246\340\254\274\376U2\275m\213/\275[I\252<3lU\2755\366\240=\3153\036=\225\312\035\275\377\315\237\275\'\240\213\274\220\306\260\274\374\003\217<\276\245\340\274\231\031\257\275\217d\177\275\243\"\016<\304\353\344\274y\"\000=C\355\373\274\216\003\t\275\347\261#<\275QI\275\307\235\033\275`\'\001\275\321\311w=\204\261\2759\204\375\222\2755\213M<\331\310\366\273\270\256\212=\260S\230\2749\201\221<\316\025\232<\341)\304<\355\217}\274\344\303\232\274\237\203\000\274\006\267O;LN\037<^\016O\275oH\226<nsa\2759\265\215=C\222\244=\350pi\274\001\322\\\275t32=\025[]\274\254\322\343\271D\206C\275\247\346\361<\236\334\021\275\237\342[=^\025G<\334E\033\2753\366\034=\354\010\233=h\024\211\274\272\\\233<\263\032\251<B\272\376\273\34250\275\251\235%\275\211a>=(k\313<V\355\310\274omr=X\341\301\274\277\315\205<e\361}\275\322\341b\275p`\263=\033#\244<\345\375H\275\nT\"\275,\020\341\274\203f\330<\363k\031\274\025d\253\274\364%U<w\211\014\2750.\245=\300\322\020\273\010d\022\275\352\2501=G\344\231\275\215\352F<Z\354X=\322\010^=\343\341\355\274\301\255^<\272a\367\275\315\307\235=\354\222K\272q\371]\275\t\2364=m9\'\275^n\242\274r\341\263=s\305d=\307\257-=G\2554\275|\327\014:\355]5\274b\351\024\276\317L\241\274\360G\271;c\356\217=\231\007\354=\375\374$=\324Q\262<s~h=\370\304v\2743\351\204\274\316\010\346\274Z5\240=\262\363\031=S\260;=\001u(\275\021\212\250\275)\360\337;\355H\232;\272\300\261=7f\233;6\310\203\275\t\341\221\275\270\220\036=\236@(\275\246\336\225=(\224\005\276\"\356\243=L\001\327<:\346\253=V\303\r<YK\241=\210\233\345\275\375E\262<\260\266 <Q\203\212\274\335i%<\026J\335\275OO\223\275\274X\036\275y\213\371<\335\234U=Uol=D\001\260=\361\335\036\274\261\331$\275\324\234\t\274\311\300f=\254\353\223=ml\212\275\252\275a=!\214\272\275Y\211\006=\224J\303\274\343\263\017\2732n\224\273\317\213\212\275\356\nJ:\025\334\221\274\203\234\213<Yh\001\274_E\207\275\266\017I\275\303>0\2755Pr\275e\260@=\030f\005\275\207z\276=.K\356\273\332\313J<\217\235\014\275\036\276\321\275\331\242I=\265@\306<KZ\320\273\253\255\360:\362u\351<e\312\227<\334=\236\274\207\220_=\207g\273;+\211_\273\322\225\227\275\237A\275=\301\346\222=\332}\225\275,\000\247<\"\261\352;\337\237\201\275\237\017\327=\016\034\200\275\256\273E<\317I\245\275\nzq=\373\306*=\006Xf\271FMl=\223uQ\275\006/\217=Bws\274s\342\305\274m\337\034=\333\376\223\275$\255S\275\232\216o\275\251\232\241;=\3066=\3615\256=i+\255\275\226\\\237\274\314\232\024\276?\337\036>\267D\027=\003\335\240\275\034\273W\275T\266\n=N\240\234;\254\035-=Q\"#=\265\200\232={\300p=\255\n\005=\223\256\373;\316WB>\017\337\212<\316\306\t\275~7\216\275\033e\351<t\2223=\271_\203>\347\211\256\275\250?(\275\006,D=\017\273\245\2744\035\212\275\201\300\325\275\317\356C\276\323\032\202>\006\347\361=\362y\036:\222\214\035\276D\260\013\275q\313\261\275\260L\201\275\016\356\027=\376&\000\275d\177\254<\367\213\202\2759\311\345\275\371\222\231<2\024C=;\"\232\274\260\036\273\275\027\022}>+A:\275V\251}\2755Y4\275\327\023\366\2748\213\204\275\307\211`\275\027a\353\275Lr\251=!u(=[ a=\227E\026\2753E\365\274Y\364;>\025d\253\275\014\356\257=~[?\275T\224\213\276\303\027\305\275\021\364\250<\315xK<\235|\226=\030\330\254=\002H>=\240\325\337=;/\"=(\367\333\275-ar=\200\213\301=\263\031X\275\202_K\275\244{\032\276\366\241\004\274\303Z,\275\003\024\323=\021\355{\276\022\230\034\274S\016\013=+6\356=\223\331\307=3W\301=X_[\276\233\035N\275\357\2114=\"`\014\2753C\242=\217W\005\276\300s\253\275\340c\252;\322\266\023\275\204\307\260\275\317\227\273<c\315d\275Z\014A\275\0049\002\275\364o\356=f\2730\275l\025&={\305\312\275\022\317\210\275\232u\300\275\002\"\216=\215\334|<1\233\334\275j{\234<*\364\234=P|\332<N:@=B(\222\274\371\222>\275t>\220\273~H\323=\315@\014\275\036\230J=o\326\266={\237b\275\224\3552;\306;\001\275\205o\346\274\373\320e\274}Q\\\274k\236\023\276\243~\202=p\251\241\275I\277/=\010\2168\275t\270#\275R\266\017\276\032\370-\275\007\273C>S\307t\2726\253\016\275\304\302\317\275\347\306<\275\211\024\214=\255\311\312\275\037\247W\274\016\300\026=xy\005\2724Y9>>\363]=8\341\252=\013\031\372\275\266\311U\275z\230\220=Rb2\275\273\345\032\275\005Q\203\275t\037K\275\233X%\275%Q$\275c\257\343\273o\360\334\274\215\020\346<\177j\232\275IJ\003=\267\333\247\275e\024\354<\376r\302;\3278`\273\376\033\021>z\334\241=\206z\033\275\343*\202=A\340r=\201\366\371<\207S\302=\030 \214\276N\005\250=\244e\017\273 \t\276=\357<\007>\303bm\275\013\305\006\275>\267F\274\3335&=j\022B=8w\216\275\344\347\331=\356\340\363=63\225=cy\206\273\212F}>\227\325\250\275\002\257\262\276\363\274\226=\037\230\306\275\t\246\215<7\000\227=Q\303\274<\352q2<\305\363R=H\013#=WDz\275gg\235>\262\330\337\275\035\306\314\273y\260?=\311g\034=\024\202%=A\324\252\276@\300\330=\2627b\273&\332\323=\276\215Q\275\026\331\301\274V\311p\275v\222\203=\375\2521\275\312\'\222;\274\327\243<\3328\246<c1\334\274\352~R<bY\343;^zS=\254\031\204<\230\303\260;\233\3672\274\037\3650\274T\351\"<D\314\241=8\2729\274\362\236\024\276\271\336\027\275\217\022N=#\0144<v\271\324\275s\236\303\275|X\337\273\335\032m=\301\277\321\273qR\230\272\321\223g\275\2063\016\275\341\201E\275\\F\251=%\302C\275 \355\311<0\273.=\317\026%\274\241\3065\275\035,\315\274\264\310\240\275\371\361\301\273\370vJ=\000\370\010\275~\360\245\273p\272\361\274o\t\022\275\350\037H=[\246\261<\273z\315\274/\312\353\274\314\313\322\274\037\'\035=\005\304\210\275\257s\220=\307\367\'=d9\363=\241\262\201< \340\225=c\326\357\274\031\242\271\275N\240\211\274y\330A<eD\277\274\230l\325<\211\033\036\275\030Q\013\275\325+\210\274\000\300\204\274\2723\r=K+N=B\374\201=\311\342\000=\2312I\275\201M\313\2734+\364\274\370\310\226\275\231\343%<W\007\247=L<}\274\t\007\376=\243\311\022=\"\023a\275\215\377\022<z\203\223\275\317hd=\177[q<Z 5=\356\216\217=>\206\017\275\016\242\356\274\020\256\223\275k\315\023\274;\375\240\274p\255\373\274\033\345X=\374\360i=\357\016\026=\2173\250\275\211\035\235\274\376+\234<\342Y\314\275P\021\265;\360\271@\275EG\276=\355t\203\275q\r0=\360\200\"=\244OX\273\303\330\214\275q\251\237<\341/\030=E\274-\2752\324\245\275\263z7=d\021\306;\251H\273\274\r:\017<\343\377\363\274\214_\221<\300\200X<\221dA\275\2036\026\274\037m,=\367\323t\274\305\265n\274\316+\300\275\014\033\236=B\245B=$\373\300\275\267\242\303\273\017v\202\275U\214\372\274\336k\023\2756\304\007\273\232Zt=\217}\311\274B\307\021<\375,\002\275\004\021N\275p\036 \276\027\214\342:s\326\020;\357z\263<*\305\034\275\300\034*=_\356\364\274\327\017\340=\340w\213<\211C\007\275\035F\366\275\356E\377\273\303\301\272=\353-s<2\224\255\273x\306\214\274{g\n<\243\204\351<\035X\226<[\001\221\275\\\353\204=0sA=$\276\300;*)\320=\032\245\246=*\021\242\275S.\243<9\221\330\274\250c\200\275\247\271\355\275\245\022\275\274AM\242\275_Lu\274i\035\271\275\221\206\213=c\313\330\274\273\036\221\273\265vM\274$.\224\275C\270\220\275\251\310\027=;\351\243<I\006u\274\336\304\326:\007\271\231=`\004^\275\302_\254=\344\201a\275\034\246E=`\267\016=\262-\364\274\007\024\341\274\336\201?\275\3302\350<B%\223;\362C1=\305A\026\275w^\225;\353\222q=\\G\275=BD\311\274\230\336\032\274\311\023\205\274\254\024\224\2738S\r>$\000\005=\345\317\355=\313F\267\275E\355\353\274\203^\231\275\312\225\206;\352\t\261\275:\337\214\271>\036\213\274\2414\261;\266\302J\274\205Yh=\036\240\243\275}\237\270;\2344\221\274%\027,\275\032\304\005>\270\342\354=\335\025\226\275\221\376\352\275Z\334\272\2743\335F\273\005S\261=!-e\274\246\320\226=\262Q\314\275Q\234\265=H\2435\275\212\270+\276a&\271=\021U<=aD\207;\332\256;=\244\032\210=\006\274\311\274Gh_=\025\273F\274\356\004*\275l\322l\273\220*\212\275\330\036.=\341 \226\273.\303\322:\244\\\264\274\264\345\r\276o\355-\275:\007\240\275W\315)\274\300\252\270=\005\343\231\275r\245\307=\325D\233\274\274\276\010>;(\364\274C\270\226<U\310\204<aZ\230=\327H\267=\235\013\306\275\216Z\250=\242\272W\273\300+\374\274\351\240\021=\353/A\274Bq\262= \214\341<t\370\354<,\370\256;\314\021\342\273\311\320V\273\255\225\230\275\235\212\244=E\313l<5\346\230<\355Rt\276\262\275\267=\314\374D\274\205b\264=\320\\Y\274\221C\231\275\240\031p=.\217v\275\307\350j=\361\276\353<^o\344\275l\366;\275\260\370p\27402\256=\\6\217=5\340\207<\213=<\276<\251X=\222P\205\275\240\032\000\276},\340\275o\312)\275Z\024\212\272\356\rB=\324h\315\275\024~\350\275\274\n}<\243y\211=\324\320\311\275T\004y=\005R\264\273\215s\001=\326Q{\275\324\022f\274K\222f<K\331\265\2746q\375\275\245\037\243\275\244\026\'\275C_\316<\001~Q\275\024\024\212\275\014\371z=|\223&\275\260\003\333<\322\307\372\275\024U\010=\273\237E>b\0033\275\327\037\036>\277\365\201\275\374o8\274T\2243=FQ\025\276?e\013\2750%z\274\221\\c\275\224\234L<\275\276\034=\334\022\003> \023\020>x\217\243\275\316P\217\273H\213\210\273G\022\206\275\024\261_=$D\302\274\321~\301=\\\274\301=\026\310\254\274\026\274\327\274\303SN=b\t\032>\206\241.\275z\236\216<x\345@=1:\224\275\321\377\240\274Q\273\256=:2*\276\367\260\021\275E\246\207\275+\3357\275\233\006<:s\013+>\351\016\227\275\235\260\211=\337\327F\273Fnc\275\362\317\005>l\364\246\275`b\256<\016,?<Y\027\311\273,D\005=\226uP\275Fx\213\274U\243\244\2750\257K>s~\361=\025Uy<\206\364*\275\252\313O\275x\263\214;{\331\243\2758\315U\273\364\300w<\000\007\255=\373\317+\274\365\030l>k\364\254\275A<\253\274o\270\206=\022\224\\\274\001\353\337=\265\357\307=\021\304\242\274\007j\332=\334\\7\275{\331\026=*xP=\267\302\330=U\301\352\275\241\311\373\275\312EF:)2\270\275s7\223\274^\377\377<\272 V=W\031\247=}8C\2758\262!\274\336\032\033:\303\203\257=`C\335\274T:`\275X\240;\275\\\350U;\225}\276\273\241\262D\275}\345\003\275\177\376\210<\017\334\030\275h\211\023=\244UF\274\374iU\274\261(\200\2742>x\275\212@\'=qu\032\275Vx\251<t0\007\276\256s\010\275\251\001/\275~\330\253=\234\220M\275\244\255\004\275s\037\241\274w\263j=\"$\033;c\261v\275\334o\377<\204[\031\275\024\345\356\273\303\372\300;\356\177\315<\357\007\t\273S\377\234\2759\3421\275\320W\312\274q,^\275\352\201B\274F\240\025=\263\013=\274\275\321\337\274M\232s;\325-\203\275\373<\214=\2428\311;\351\037\353\274_\274\r\275\0231\n\275\307\214\274=1\344\'<hH\202\275\201b\023\275)U\003\275j\327\275\275\026+6>\033o \275X\353Z\274\300\010\217=G\235\000<U\212\362:\252j\306;H\025\251=R\023\376\274e\336\227\2751\331\351;\367\367\260=I\022+=O\211\206\275I\\7:%F\274\275\324\3657<8<@\275c\325\273\275\326U\313;\233\210L\275}\205(\275\r?\246\274iQO=@H\263=a \016\274zW\272\273\222\017\330\274\n\267[;07\226\274\006\302\014\275\014iG\275ut\013\275h\3516\275P\215%\274\337+\010>\3271\016\275e\261\224\272\353\303\324=\225\005\321\274\312w\343<\324\326\235<\024\202S=\343\025\340;\2377\237\275\363\270q\275u\213\235\275\377\316\024\274\270\351$=\017\303~9\251\225\212=\311\257\322\274\364\2427<e\265~\275\026\203\250\275\230\001\224\274\200\365\332\272\304\316\t=\252\254\037;j7\032=rg\010=\275\252\r\276C\206z\275!6\341<n\r\377=\201\017K=X\006#<\005\237\220=Y\254a\275:\031\254\274\347\377\236\275b0-=\247z\026\275\226\035\3758\373\023\002\276+\361!\275\\3\355<\\y\240\275\312\203\361\275\326\316\223\274Q\345\373;\341/-\2747\2352\273\321$)=\377.\237\274<O\212<;\347\021\275K\242\213\274\264\347\250=\033pp=\0206\254;\210\227\252\275\262H\317;\227\\e=\362\005h\275\260l\r\275\032\324\007;\377h\251=\376y\367\275d\327\247\275\346\257\014=&{\245<s\277\223\275\315\3155\276\223\326\020=\262\333\333;\205\336\326<\377)G\275\221\220\034\273y\3764\275#\256l\274\303\007\002>,\204\274\272\273\203;=\346\025\357<.\347\231\275\\\204S=\332\227\320=j\221\224=S\364T\275pz\261=B\241\201\273^2\347=!\221\212=\225\333\007=\322>\241<G\231\262\275\202Q\220<\270n\360\274\337;.\273h5\030\274\335\3225\2753Lg=9G>\275\020bC\275\367\243\374\275\365*J\275\016\323R\275\250z\220<\004u\204=%Q\317<\005\235\002=\221=\305=\201\305\253<cu\021>\374\250\320=X\316.=\276jh<u\003Y=9\306q\275\013 \216\274\022\357\225\275\000\207p\275\020\250a<\211S\016:\226\350\321\273\202\025\273<\206\375\367=7\255[\275\340\211\254=\230k4\2755&\377=\322w\177<\010u9\275T\006\032\275\305ts\275\311-\225=\370\343\n\276\306\003\255\275\357M0\274N=\265;!AH\275\211D\223=N\357\275\275L\r\n\276\306\202\203=\214r\257\275$\000r\275\227\255\204<\213\352&\273\250D\370\272\334C\035\275\307Q\211<\247t\030\276\027\356~\276\020Z\033=\023\202\357<\237+g>\245\314\372<2\240\277\274\024\005\003>\003\236\021\275k\304\022=\242\323\023\275\200)_\275/\023&\275\253:\316=\031\343\310=\233\375\207>\001\203\234\274^\007\024=\220\331V={\206\270\275kj\265>\250\253\361\274\356c\356\275\257\235\352<\215\311\000\275\222Qf=\305\370\347=R\225\273<A\351H\275\216\307\201=\276#\203=k\246:=\034\214_\274\003\305%\276n\267\276\275Hr\305\274*\246v=\242\253\"\275\207\310\215<)\321\363\274\313\323\023=\366\313\250\275]\227\033<\31447\275(\211\334<\217F\252>^\024R>\343eY\274\204\2353=\241\003\250=\224\230\262\274R\306\240\275\265\034T\275P\242\001\274%\207|\275\316h\017=(\0146\275\360\277X\275\2370\362<=\220\370\273,\234f=\265;\275;\206\276T\272\334*\000\275U\235v;\314\341\352\275\013\222\022=\r\323\202=\227\263\347\275m\363\355\275\017\340\214=1\246\373\274c\366(=\246\377\226=q\217\023=\214\342/=X;\205\274\251\302V= m7=x:\201\275\235RV\276\212\231\241<\313\357\264\275\010b\244=\301!\211=\221^\025<\000\023\004\274\215\225$>i|\327;S\202\201=\2148\201\275\253\005\t\275\250\221@\276-]\271\276\276R\361<#\373B\274\272\363\035\275\'.\033\276\364\205j;rH\364\273\352\247H\275\222\313\344<\002\276\220\275p\352\321=\332\3411\275\033\264\r\275\222\013T<0\217\324\275\t\316\022=\306\2720=\ruy=9w\364<i5B\275Y\332H=\362\'\260\275\302\270\303=\000\300\267<<\357\036\274d\325\225\273I\267\366\274\367\\(>q\306\313\275U=\224=\003~\252<\341\360@\275\363\234\274\275pI&<\000\0331<W\340\312<\231\362\\=u\323\360\272\017*\271\275Z<m=\021_`=\r\356\331\274w+\030=\027<\207\275jb\326<\255\361\341\275\334Uh\275?{\234\274C\346\022>I\003\027\275\021}\206\275\216\314\203=\355Ml=\213\254\203\273_\201\022\274+\336_\274\203\026\234\275h\206\317\274Ll\001\274\277\314\237\275\366\363\n\276s\177{\273\030\256\257\275\240\320Q\275<\247S\275\234C\226\274\006\256\251=\271\253\207\275\361P\212=*&\371\274\244\021&\274*a\271=\014\360v\275\034)&\275\201\2760\275`G\022<\375\014\'=`\360\032\275\002\366\231=\020\343;=\3534\346\273\007\311\305\274l\270\233=1\320\203<\355\351\354<\255\037\304\274\345\366c=\250\307[<f,f\275\244\2147\275\262rT=\362\202\327\274\362\'-=\3330Y\275\220\202\363\273\013>\216\275r\305\217=\375c\033\275\207\030\236<0g\227=\227\241?\275\3301\344\273\307\327\017=$\374k\273+\375\035\275[\037\t\275\221\314\032\275=t\365\2711\3566\274\\\335\205\275\364\000\266\274(\030@<\317\031%=\320n\277<\274\330\336\274\t\005m\275\263\010\233<@3\325\275\234\005m\273\373]p\275*\230\016\275\002$9\273\307\271\254=\023\310\211\275\213\255\033\275;\t\217<\213\204~<\367v\376\274\020\245\324\275\212\327\002<b\225f\275\276IW=2u\267\274\224q\261=.\222\242=:gs<X\235)=g\325\206<tCw\272\3134\223\2754\316\371\275\343_z\274\2738\366=\032\002\233:\220\001\232<k\252\353\274\354\177\n=\246\261&=\356\232v=\001\374\211=,\'\331<\361\340\014=\232\317H\274\322\371\r\275\266\301\301=\254L\341\273\354}\006\275g\305\300\275\305p\201\275X#\014\275{\r[\275 \037\312<_\202\322\273\221\272\001=YD\326\274m\312\260\275\275\303\034<N\2231\2752\306\264\274+\346\031\276Rl\374;o\032\000\275\250\001\323\2737\253y;6\376\301\273\220\341\210\275\276Y\315=\004\271\205\275\\yJ<\315\342\006\274pHR=;\201\234\275\312{\253\272X33\274\231[F\275)7\364;\246\273\211\275\003a\340\274[so\2758`\251<\261\272\212=j\255\232\274D\255\232\273\362V\003\275\376\357K=\246\002\'\275\"\2359\273\3560:=\316\335\001\275\263\242\276=\034\203\212<O\370C<|\363\002\275\3534\003\275j\031-\274]\204\263\275\227]4<\347r\013\275I\223\213\275P\207\263<v\310L<\356\255\024\275F\350\000\275\321\306\032\275H\037\264<\304?\347\274\255\223\021\274hl\312\275\355e\323\274%\356\270;c\236\245\275\246\361\021\275\030\326\241\274\277U\312\275\005zn=*\2234=\n.\177=n\210n<A\214\301;\200\225\316\275.\373\353=V\320\216\274_\022\304<KmU=8<\313\273\006\211N=<\224\236==\314\300\274\\\303^\275\262u\007\275\257\324\221<\377Y\240<fC\025\276\212\017@\275z\277\310\274\353\241\263<\213\006\250\274L\235\003=\275\212\276\275\"C\004\274\202\253\3159Wp+<\250\220\361=u\316;=S\200\225\275c\221\304<=\372g\274\177)v\275+\236\n<P\216\r\274j\356\347;\313\207\340;\377\313\245;a{]=l]!\275*\2259<X\207\265=\323 p>\355\233\361=\330\304R=:g@<\310U\373=u\034\242\275\360\220\200=\210\377\322<N\206\306=\254\254\216\274\315gg=\273\223d\276\261r\260\275\016\225\035<\255\004\362\274\372\244\343=b\247P=\347\304Y\274\355<\002>\216\303\'\275hQ\037=z\220w=Y\367\017>a\324\356;\365\246\001\275!\263s\274\376\373\222\275w\277\277\274\245\023\205\273;F\356;\375(\320\274\314\315\357=\030(8\275Kw\r>;Xs=\316`\226=\355\252\002\2764\225\202\276|\276\036>\021\356v=\32607<]vK\275\"\026s\274\242L\006\275\371\007\366;6e\362=[\225\235=\242s\262\274\253\341_=\033\313\341\274\273\236\035=%vx<T\304\266\275\220\360T>M\202\206\275\277\353\212\274!\0365=\n.\265\272\030\254V\275\261\337D\274\314\204\367<&\252\201\275\331\274\030>>\342B>0k\273\275\001\350\206=\302\257&=\007!\242\275\3328<\274\272\343\005\274b\256\262\274\363\000l\275L\334\225\275}`\340=\225\205\372=\344\261\224=\234Or;\322>7>\355\\\202=\236\316\234=t\373\033\276\'\375\364\275\005\026s=\342\021\345\275\016\037\233<\004\017\010=gC6=?z\315=\031\310\256=\315\236\267\273\314n\272=\233\373]=\362\324\226\275\017\336\027\275\254\030\210\274\200\212\251<jzi\274>\220\340<\023R\002\276\210\3411\274W\246\325=^+f;K\374\217<\014\003\255\273\3021\216<\254\203\371=\335\267\005\276_7\243<\2747\007\275\3136\311\273\204\306\017=\341\341\315\275\030\265S=S\256\227=\353\271\215=\024\373\216=AuR\276k\342\262\275\217|\256<\276\263\t\275/\2370\275\315\320\270=P\024)=!\303\232;\262\354G\275g\314u<\256;\362\273\306u\311\275c\2225=\220\232\227<\243\353\374\273\242\371\026\2758\341`=\027\205\035\275\264\024\377<,\261\266\275\217R==\035\232\347=\024\326\2069\376g\247\275\"n\240\275>\'G\274\302\314\321<\207\321Y\275\035A}=\367^>=\345\267\256<\210!\214\275\360\300\301\275S\350Y=0\025\304<c\372\332\275\270\246\t\276V\217\027<\363<\232\275{\251\351\274*E\237;?\346V=\037\330\200<!\216\312\274\216.\020\275D\352\267<\214\371\207\273w\353\351<.\250\266=}\326E\2754\254!\276mj\235\275\330\353\n\275n\264\231\275!\345F\275\246\375F<\342s\362=\r\226x=B\316\267<%\0028\275\221\003\330\275\0176\227\274\026\t\261\275\372\n\225=\250\370\214=e}1\275U]\262<\351\330\353=8}\274\275\340\203`\275\222-\370\274M\031<=BOc\275\371_\030\273gb\221\275@\244\223<Ed1=\313\324,=\037\361N\275\233\335W\274\315k\314<\252\0347\274\333R.\273\037\202\\\275\367\271\231\275\372>/\274K\020\213\273\350\0311\275\001\325\306\274\321k\033\275\214\246\341\2737\023\005>\232\235!\274l\3427\275/\371\342\273\255\272n\274z\240\227<\241\320X\275\352D\200\275F\325K\275r\377*\276\216y\265\275\364\304Z=^\360\245\275\241\025\237\275\343\'*\275\224\334.\275\252\314\t=\233(\232=\210l\261<\311t\032<\344\360\231=\340I\255=\263\347\"=#\005_=\305\017\3159Jl\026\275\005\265\027=b\326\270<e\374\257;}1+=\200\351\244\274\316\277\014\274\023\300\030\275\223C.\275\031\234B=0\361\013=\302\273\216<Yy5=U5s\275\016lz;\272\306\023\275\273\212%<;\217\200<\217\'\303\275\270\037\202<\353\247\334\275\247\014v=\246\236\005\275\013a\234<\247R\200\275 +:\275\220\345\233\275\344\326\001\274\340\320\254<\277\036\336<\021\337\004<OK\240;%<Y=\245\231\335\273\316:\303\275\226\331\020={\223/\273\324Z\301\274]\224\303\275\302q\236\274\367L\326=^\323\206<\334:\225\275\255?\t\275XqQ=\365\260\260\274Py\264;\333h@<7l\204\273\355\340|=c\214,=w\242\264=@L\335<\376\276\017\275u\365\306\274H\321_\2752\370\270\275\037\364\331<4\221\264\275\2617\267<\363\273q\273\331\231\024<w\022\006\275\177Tg=U\311\330<\336\347e\2751i\t\275\212EQ=\342\027\213=\215u/=\032\246n=\267r2=,\361\333;\245O\356<(y8<\262c\002=\202pl\274\244\251\217;\353;n\274\324\033H=\006\234c:+p\230=\0362h\274\342\271\366\273\207\010_=}`q=B\314I=r\362\347\274\244\021=\275\262\373s=\005d\276\274\222k\t\274M\211h=\213\rt<!\322\272\274\020\340\351\275l\312\014=Wa\237<\321\373e<\252D\341=0\221\006<AG\365<\376\322\017;#\'0\275\010\274<;\375\326}=\210Z\357\274\241\013\024;i\250\262=4\364\235<EP\030=P\032\032=X\265\025=\016\206E=\323 \032\275cZ{=\006\233\300<\370\264\016=r\022\t\275\022\t\020\275\016b\374\274@m\004\274\242^9\273\265\375\331<\2714\210=w\225\207<\312\r\035\275}\303W\275\177\0173\275>xj\27463\230=W\252\037\275\312\222\230\273E\315\244\274\236Y\020\275\252b\203\275\021w\215\275P\311X\274\301]D=b[.<\225\203\007<zH\340<=\213);d\350\276<\006}f\275\264\200x\275\316X0\275\337\365-\274\036T\035=H\235\331=\231\2309\274\235\330\026\275i:\037\270YZ\024\275\251\0308=\007\341\207\272$s\032=#\250S=\t5x<\255\276\366<\246y/\275\320+\352:\377^\027>\014f\206=t\205\307\273\370G\224\275E\326\214\274S;\010\275\344\022\241<\271U\275\275\257Z\240=\004\246\007=6\350\217\275&\351D>\024\270X>\334\325J=\276YW\275\350p%\275gt\036\276\240\002\"\274I%\037>\371T\237=\331A\324\274\302\351 \275\354\270\214\275*\026\036=\232\"K=Z\2126\274\246\355\010\275\357F\231\272]6\360<\341%\257\275\006.\r\275\0014&=\013\340\014;\264\226\307=\026\t\004>2\002X=\241\252g\275\365\006\030\275\022\0372\275\316\252m\275\004y?\275\'\024\204=\202;\332<\177N\204=K>C\275\365[\026\275\023\030\025\276\221\0225\274\254%\203\275[\213\247=\272\310_\275\3035\271;\017\207\250=\177F\275<?w\031=/\023\024=)Cr=\275\322\033=f\014\020\273F\305\036>\246<Q\273\303C\023>4\232p<\237\004\215=z]j\275~l\306=0\362\210;\365Mr\274\2000\265\272\271\257\211<\355 \221<[pm\275\025\362\031=\265\376\272<\372\024\315<\006\346\350\274\312\031\215<\316]\357\275\3776\013=Y\206&=\223\231\360\274\2106\323\274\311\366\354<\216y%=\215Ow\275A\333#\275\r\232\337=`\3215\274\275]\312\274i\211\202=\307>\273<e9,\274\326\320\275<\260\307\311\275\326\336\214\275*\177\241=0d\001\275F\013\027=\372\213\211=\007\370\014\276\343B\230;\264\310\257\274\031\031\254<\016\003=\273\354\027\244\275\004\363#\274\235y%\275\256[\032=G\213*=DR\212\275\"\225B=\037\335\325\275\326N\034=\346\362\005=\240\036\351<\nL1\273\321e\371\274d8\275<OB\346\275\2405\214=\305P\300\275\353\225\321\274ZE\205\27567\201=M\017\035\275\345\023\256\274\030P\211\274\023\'\327=+\2666<\n-\177\275\314_\300\274\347l\205=\214(\372<\204\357/\273#\250\217\275I\315\265\274\303-1\275a\314\246=\374D\211;Y\201\266;&\001\250\274\246\036C=\352\213\251;1\253\357\274\313\331\310<\251\020)\275\263\032\016<\207K\370=B\265\272<b+\013<\376\206\215=\304\0226\275\253\243\245=\270)%=z\230\215\275[\237\335\275.cJ=s\247R\275Dr\252<yo\237<\253\032\"<5\376\227=\203\362^=\303\250U=nv\237<\262\326\240<\370\233u=\302\350\001\275PZ\212=\214\3070\275L\336:\275\245\022W\276\364$\242\275O\r\221=PsH\275\265\210\222\274P\374\272\275\261K\332\275!5M\275\023\022\240\2751\374l\275MZ\251\274\302sv:gEe\275\312Y\007=bH\206\275\331\247\317\275\013\234\317\274\030KH\274\237G\206=_.A\275\221?5\275 \352\334;\305J%\276\261\230\023=X\366\201=\301Y\276\274v\177*> \215\020\275\177\006\211=<\"\265:l\016\211=iL\r<\2315\222\275\301\246\214\275f\032=\275!\242O=\316\203\250\275\236\317\236=d\222\365=\370\nL\274V\036B=\236\260\313=_\2663\275\305\225\300\275GA\261\275z\222\266=\231\215\010>\307B\230\275\341\200\341<\232\304\022\275\203\\\n\276\276\267\274=\257^\301\274F\'\274\274zU\037=\010\017\341<6\362\247\273Q\210\304=-H\350\275u\371o\275v\231k=\204Rg\275\341\335\200=\203\264\261=\244$\002=\275\361\333\275J\231\251\274W8\373<\255j\247\275\355\002\241<\357\304!=\365\313z\275\036=g\275\200\345\354\274\220&\024\275H\014s\275\275O#\275\321\252Z=zC\277\274\017z>\275\232\267J=j\341\017\275\264.\033\274k\356\"\275\002\212\"=\212\271\030<2\224\r=\034\375\002\273\245\t\235=D\220\017\274\373\243\355=\213Wg\275\014\377o\274\200\003I<dD\036><0o\274ZA\271\273&d\253<\236\277\010\275n\036\010=\270\010@\275\021\333J=x;\017\275\337<d\274\346\3064\275\270?\337\274\236|\275\275\246\253\021\275\355\325+\275=%\332\275V\201\345\274\212]\243\275\343\335^\275\347Dc=\205\036t\274\335\344\200\275\213\316R<\025\\\231=\227\004\207;\006t\247=\240T\262\274I^\272;\340\024\332:\272\321W=\377n@=\264\324\263\275i\303a\274z\374\353\275`\340Y\274\344\353\025\275.\340\330\275\336i\031<q\030\374\273m%\035\275\340\234\272\274\320\217i\275\267\026{<\342Pv\274\224\005\215\275\005\316\031\275O\270+=\001,\242\275Cv\010\275U\225\215\275\264D\373<f\023\251\275\310\261s<\271\313s=\320\277\254<\356m9\274\261\210\242<>\322\027=r\367W=]`\220<\026\326\232=\374\256@\275\362\033\262\275\273\346\025=\001\261?<\n|\227\275\236\236\275=\314\271\237<\016N\242=4O\013\275C\270\215:\270\351\023\274x\023t=\325\274\214=2\330!\275#\224=\274\002\354\304\274H\003)>\252n\213\275\006\206==\260|\n\276\013\363E\2759\345_=\367\255\305=\227\366,\275\006\031\276<\361}\226=\353\300;<\273\311\353\273q\026\206\275\266s\367\275?\210\215\274\270]\004\276\021\356\021\275\310\332\207\275\253fu=\034\234X=O\304\270=\346=\'\275\327\037\300<\345^\025\275\365\230\345\274N\363\247\275\304\200<=\242T\254\275@\345S<\326\206\304\275\321!\177\275\206\361\023={\035\003\275\343V\271\275\016\220\265\274Q!-<\221\326\013>CA\353\275\006\026\273=\324\267\307=j\311L=g\366\201=\370\255\335=\033\255i\276\222\374\013\275Uk&\276]\242\276=Z\010\304=\201dA\275\250\217\360;8\355!:\274\026\250\274\356\302\206\274\250+\334\274Dk\352=\200\311x\275{\233\322\275\234b\n\275T\023A\275F\202\243\2752fZ\275t!w;\201nh=\310DK\275,Xt=\343\034b=\372\361\375\273\252\210^=\344}\366<u\366-\275\263f\311\273J\220\313:\013\264\240\275\214\275J\275\021B\002;\231a*\275gV+\275[]\357;\371\212\025\274\013~\n=\243\016\210=\260\260\245\274-i@\274\352(\026\276\353j\217;\300\231\346\273C\323\357=\246\303\355=Y\331\324<\3423t=\274\366\200=:r\377\273\355\371<\270\312\006?\274\212\016\304\275>:\322\275\221\037\017\276U\272\244=\273\367]=\321\202\006\276\365\205\273\273\215\204\234\275m\255f=\223\233\t>\023\026S=\372)\355:\241\331\013\275v\270\356\274{\243\376=D\021\014<\323\200\300\273\2240\231\275U\032}=\317i_=\314G\005=\366\351\246\274V\343 \275\322Q\\=\353:{\275\326MJ=\356\303];\377/\214\275\334\250\226<S\265\216\275Z\226^\275v\347\t\276=w\216\273\372J\235\272\275r\033\275\002\177\267\275\224\214\325;Vm\207=I\000\007\274\024\251\354<zy\034\275\276\264#<\313\364\277\275?o\311\274Z\034\202=\332O\014\275\2606\212=~\227\314\274\304\232\014\276e\345^<D\237 \275G\004\037=Z>\247\275\346_\335<@8\223\274\231jP=\333}=\274\222\217:\273\301\316\334\275e\212M\274\215L\227=\275-\010\275_ \255\275\234\013\t\275:L\361=\354\375\252=zE\242<]\327\373<\327b\257\275\207\032\250\275\201\352m\273\233\0144<\247On=C\317P<&K\312</\0237\275\025\346\221\274\276k\033<\365\017O\274\0342\273<\336s\360\275\262\301\331\275\207\371\234\275\251\010\327\274\247Ph8S/\211\275\271P\235\274q>z\275\263\255\007\276\204\261\231=\256\373\204<%\013\304\275\212\\\244\275\311/\013=M\363\033\274\030H\r=\351\250B\274A\2478=\306\210\240\275\322\243t\275i\323K=#\014\374=L\225\003\276\320 J=\256[\037\275$7 =\371\316\332\274\323\034(\275|\323\311<1 \204\275\233$\256\274l\357\007\276)\357\214\274\363C\204\275\201s\024>\020\232\321<\306jP<\224\177\226\274\001\"\021=\272\007\332\273\2046y\275tm\213=\005\347\242:\233^\226\275\234\253\303=w\345\013\275Z\313\230=\2564\353\2733\313\350:N\2229=\274+\342\274\376\324\307=\374\377\234=/\376\352<\024\344\377\274\t\201;=\rD\255=\023X\243\275\201`\203\275\221\252\256\274\\O/<\272t\211<.\354\243=.\311\335\274\3457f\275A1\243\275P0\016\276g\311y\274\366\237\245\275\372\214\300<\321\'\271=l\255I\275\326\202}\275\354\326\223<\305\n\215\275\014$\007\2764Z(=\006\341\240<>\013Y\270j\030\272\275t\247\020\275\200\262\331;\212g}\271\302a(=\334e\304\273_H\324\275vK\210=\265b\340\272\363\370\271\273ic\313\274\201\315 >\027\301w\275\323w\345\274\265eO\274\365\236i<WK\027\275\272@\333\275\264\247\223\272\326\023@=\225\004\305=\360\"\037\275Y\332t=R\010L\275(\335n\275gS\326\275\"B$\274\365\274\370\275\270\305\030=\261\\\006\274\244\334D\274W\263\255<\254\274\332=\204\372\242\275\244K\376\275\376V\030=\2011\277\275\000$\313\275\265u\343<\371\266\302<\267p\201\275\330\216o=9\330\235=\247[_<\251a\214<|\316\314\275\332S\340\275\313G\234\274\024\177\320\274\n\273\034\275< z\275\302\336P=U\263\032\275\337\205L\274\376\374\276\275Q%/<\311,\247\275\371c\n=\021\240\272<\n\351\310\274j\250\336<\357\001\240<\255\303D\274\206\340\334=8L5\275\243\342\277:\371\315g\275g\267\237\274\274\263\374\274\216*\364<8w\004>\001\310\244=\314\021\211=\303\205\202;\275\005\003\275\tP\214<\372L\000=\341\036$\275l\235\203=g\245\'<CL&\276-m\000=\235\273\326\274\3167\356</n\202\275vk\260=\205\325\271<\271I]\275\264Tm=\2509/\275\030)\216=\350\245\225\274 \230\022\275/\356\210=\201\367(\276&\274\314=N\256g\275\"h,\275a\265\244=O2\300;\035\201*\275\372ez\275\353r\312\275\365\372\337;\320\313(\276{\347\242\275\"\200\312\274N\222\237\274JpN=\021\245\202\275il\r=-Mp<\356,B=\023\354!\274\230%Y\275.\006.=\246\037G=\341f*\275H\267\343=\005d\365<%\263\236\274\035?\240:0\030\264\274?\010\025\276\356\225\347<\223\022\005\276\035\354\000>\271j\237\275\312\002V<S\314\246<\275_\236\274e\216&=\223\300\022=\300\024<\275C\000\215\275\272m\213\275O\035\324<@\001Q\274\034\354\305\275G\243\310=\256\225\265=U1g=|\024\354\274>\013\221=M\2256\275b\202k\275/\033\331<\006\253\253\273\237\215[\273Y,\200\275k\222\022;\317\000G=V\321s=\034$\220\275\202\256\302;.\301\016\275W\201\224\275\344\332%=\002\207\230=\007\231\317\275M\326\206=\r\325\207\273\212\274\350;.\232\"\275<fe=\177\211\250=\t\265g=\031\361<\274\244\3014\275a\251\243\275Qh\360<\n^\005\275\336\027\350\274\2377\232\274\227\310\r\2748N\263=jtf\273\377\364A\275s\307\234<E\323\001>n\204\365\274\341\326\212=\264\307\207=`\233\255;\310[\023\275\207h\264<N\030\216\275\000I\315<\037q_=\021zu<X\277*=\022\332$=\350@\271\2752\034\345\2751\020\302\275PY/\272\267Vg=!\037(\275&\245\202<\227\364(=\315\000\\\275\220M\222=1\242\027<@\310\"\275a\376\033\272\273V\333=%\345\344\274h9\341\275 dQ\275\t\214k\275\265X\254\275\263@\270=\'\226\234;?Z=\274\363jS=\256\364\223=\232\260~=\246\330\266=pWu\273\267m_=\336\342\342=\336g8>zO\330<\230\035\006>; \n=\302\033}\275\225\013\205=\233l*=\\j\035\276\2046\207\274\024O\360:\034[\244=\376\036d=<(\346=\\~\006\276\302r\364=U_\324\274\370\232\007=\362c\234\275\010y\204=\030\376\216\275\254S\356=\242C\024>X,\026\274\332BM\273Sb\251\275\363\234\336\275\374\2701=n\010\314\275\003\323\210=\004\214\251\274\177\200\303\275\214J\230\275\203\036\017\275\204J\021<\257\031c=\245\267\333<\021\357\300\274\255\021\006\275]\264\245\275\340\337$=m\367\344\274}t\3259gc\345=\247\300t=\235?\372\274\n\003x\275\323\322\262=\277\304A\275\217\364\360\274\033x\206\274\344\332b\2740!\3019\014\310W<\374#m=9_\224\274N\024q\275\203h\272\275\177\354\321\275\266t\213\274$A\252\275>)\245<\231\025\243\275\365)&\275\\\240\223=}\305\230=\337\005\227=\006\352\273<`\315o=3J-\275[\2269=?u\221\273\342\334\016>!\245\0229u\340\000\274\304\337\344\275BM\262\2760d\367\275=\250\252=x&\334\274K\306\217\274\235\\0<\233P\213<\025&\252\272.*\260\274\362q_<|\226\226\274\275\327\271=\372\036Q=S\243\340\274\352\260\024=\310\311\274\274m\330\233\275\252W\007:\034\222.\274\343E~\274\350\314I;\233i\276<\233\000\246\274K\321\234=#\351\242\274\250\342[=U\2479\275\265\003\332<\2122\305<}\310^\276\036\205\225\275\362\372\334\275\021F\013=\031\243\300<\232F\332<\236\246\316=W\177\303\275\201\314\035\275\267l\223<\376\243\t\275\374\t}\275\201b\250<\177m\332\274\010E\241:\360`K\275\n\304\371=Hh\272\274\032\312\316<\014EU\275*A\225\272\326\355\267\274\212g\004<k\347\216<-k\221\275\361\003\007\275u\330\201<\n\351\337=\322\366.<\226\022\255\275,\317\003;\003\301\305=P\261^=I\333\307=(\006\323\274\252\370\346\274\241\276\022\275\246\234M<\357\356\374:\242\013\262\274\0357Y>k`\343<e\2624<J\020\267\274\321\344\223\275(~\024<\203K\231\275i\325k\274Z\267\277\275\313\245\036\275L\022&=\334GI\276\'\037\365\274ZK\030>+9\215\274\262\304\236\275e\343B\275\311k\202=\322\253\206\2745?\243\275\\\265\340;\250Q\224\2741\352\320=\263eH\274\\\021b>\230\237}\275a\217\204\274\230\230\375\274\335,\263=\265\r\345=\027~@=c\177\317;p\274\001\275q\020U=\303\327\027>\014p\004=\004\213\t>\317b\204\274\206\316\010=\344\314\014=p\262\260\274\304\360\331=*\317&=S\367\301\274\031\353$\275G\236\251=\364\312\002<\252\361\332=\025Q5\273vK\314<o7\033\275\316\366o=\030\033J=\242\334\247;h\005\021=eU\000=O\037\312<\037\372\202\275\314!\233\275e\\\325=\243\362|=[9\031\275\334\211g\274\336+\n>\264L\326;k\'&\275\363r\250\275\376\\\200=\220v\226<i\002W=\342<\013\275\272N\344<{w\361=\273\270f<\336\324\025\274\220h\300\275\005\330(\275x6\262;]f\366\274\345tF<\322+q;y\300\206=\304&Z\275mGA\274\007\302u\274r\2301\274\316\233\346\275\256fS\276I\304\024=\367\332\345\274\322\373\277=\264\217\016\275&\203o</\250m<\251\024\272;\210\271+\275\032\306i\274\036Q\001=U\362\314;\340<+\275\\\020}=\375\226J>\005)M=w\006\202\274\000\306b\275S\265*:b4\321=q\264\373<\r/H\275\273\242i=j\321\275\275u\010\224\275\331\002y;\226\243\335=[\234\251=\207b\001\275!\213\262=2P\345<\010\025\371<Y\374h=\032\310\342<\346F\333\275\224m\203\272$\356j<\204X\204\274Yh\360\274\351(\202\274\200\340a\275\320\236\017=f\024\216\275\353\372\004\274\327\254\t>i\317\273=$V\257\274\331\374Z\275\241^\033\275\3725\260\275\252\332\311\274\345\323M=\214\003/=9N\220\275\237eM=d.j=\232\225$=N!\205<uS>=\033\\H\275\232\216`\272\263H\227\273\346\2160\275Q}\242\273,|I\2749o\014>\277J\003>>\356\361<\252\020C\275\233\255\274<\020\027X\275\003\004\246\2741\023y\275p\341\r\275\337\336\251\275\245\225\303;\272\"\030=BA\023=\256N$=\327?F\275\356\237K\273a\236\\\2752\371\213<\017\316\303<Y\211\253<\"!l\275\326\267T=\221oe<\227\202\226=5F\344<\274\213\257\275\316\336\375\274G\n\016\276\360\241\314=\250\004\252<+p\377<\006\324w\275\271\374\233\275\372\275\002\275x\315\334\275(\373U=\360Ef\275\1772\330;G\031 =\252Q\232\275|2\241\275T0\002\2759\247\240\275\216\010\272<W{\355<\'\"\235=![\276\274\204\204\206:\224\343\251=\323\004\244=\2366\315\274\255$\216\274\377\027\236\275y\025\224<K\270\001>\032S\t\275\306\2456\274\312\246\214=\3776\235\274-\002\025\275\227\030\252\275ge\027=\372\\C;?w\"\276\205w\200\275nu\256\272\312~\312\274o]\r=\203\353\270<*\252\257=\303a\350\2748\277:\275\367>\275\274\025\356\242\275cZk;\337\251u\274/\3675:3\303\000\275G)\035=\032^\033<\325\346W\274\033\023\001\275\324\372\376\274\032\217Y\275\274\347\"\275\266\220p\274Fl\376\275\272G\333\275*\356\"\275\347X{< pF\275X\351F>\366\340,=\264s\221\275\202\027\034\277\0025\206\2756\374\321\275jqq>3;\020\276\014\340\364:\346\256\366\274CA\303\274e\215\330;2\266\207\275\255\352\342\275\227U\027>\214ZY=\373a\234<\253\"\345;\352\313\233\274\n\312\303\274\246p\207\2751\354\262<\343\332\017\276;4t=\235\3111=\330_u\273\022l\0338\265\274)=WE =\363\363\342<\3601I>a\"\353\275Nc\023\276\376\025\366<\325D\024\276\033\346<=\263Uj=\362\263\336<d\376+\275\225\360\203\275TJQ><\325U<\0226\206=v\2541>%\250\277<\276\337\233=\304\313F<\267\036\234\276P\210=\276\034f\373;l\320\216;\000\250Z<\334rN>\315\345\362\275\\\321\313=|\357%<\022\340~\276.\306#\275\331\344\335\273^\343V\273\367\245\335\275;\222\362=\217\332\347\275\377W_\273\321\370\273=\227\362\210<\231\222\235\275\275*\205\274\271e\033=R2<\275R\330R\275BP\352\275w\346\203\273+,\335\274r\273\340\2740-\004>\377*\302<\235\223\226=\020\304\035\274E\370\037\274\256\366\001\277HR\216<qgj\276G\301\237=sc\036\2743\342C\273\022\357\243=\177!\001\276\274 \032\276\246:o\274\312\351\027\276\352;\027\276t\374\021\274\036\264\277=\324:\332:\324R\224=\211}\016<x\375\216=!S\307\273\364Vm\276\227\255.=\031o\"\275G8O=T!\323=\032\034\204>/|%<z3\242=<^\325\274K\216\270\275\366\214u\274,c\301\275\317\251n\275$\265E:)\347\377<pt\311<L\357\201\274\356\335\375=\226\342C=1\346\006\275\002\345\231>\004\224\014=\255\013\350<\355W\225<1\2612=(\010S\275\303s\253<m\305R<\231W\227;\34550=S\204B<\377\336\013>\t\341>\274\205\207\256\275;\356\273<\275) =B\367\274\275\336\035\216<\204\371\272=\3258\362\273\360&\234=p\317\"=\002\\\017=_\245+=\236|\217\275\246\235\211\275\302\263\233\275j\321\311=\217\212q=\354\272\340<sp\007\275t\343\021=\211\177\353;\337_\222<W\305#=\215\272\323\274\316\271\215<\034\023X=.7&\276\223\r\014\276;\223\234=7\302:>$\010\254\275\303b\222\275\321\320\322\275\377=\274=]\307{\275\032f\032\275I6\323<\220Q\302=\364\273\225=\326\276\254\274\335\023%\275.%\327=\007\024\361\274\0355\\\276r\362k;\215\322\325\274a\010\272<d\237\214\275\273\205y=\003\257\277\273\325x\320<\335\027\332=\303\341h<\272Nf>\032\334\230\275W\304\247<\305m\354;\006\343\204\275\006\020\030=\002:\371\275\342\177J=\220!\363<\331\231H=iP\263<\272\320J\275\341w\023\276\360d\300;\355d\261\273zB\213\274\333\224\266=\007\336\355\274\003\2622\275\345\013\357\275Fg\300:\375\357Y\275\034j\352=#\365r\276D\n>\275dV\t=\354\233\306=N6&\275\217*3=\372\220\301\275\022\354\013=?\361\014\274\2160\024\275zKc=y\211|:&\206R\274dlu\276\032\206d\275Wl\274\275\252\253r=\004\264\024\276\000\2729=3\343g=\331\014\014><\246\274=#\306\360<#\177\311=\361\334_\275\367\273\223\274k\361\024=\n\255\203<i<\226\274\344_\032=\306\307\013<L\250\244\275\233\247\365=W\027\322=\244\260\021<\260u\233= k\361\274_2\020=\253\321\255\275\374?\360=\247\026\031\275\001p1=]d\207\273\357\322\361\275\034\007\235<YR\233=%\3130>Z\264D=\370\260\360\274#\362\024\276\022\003\247\275l~\203\275\241a\324\273\217\307w\274\037\231\341<\033D\\\2758\377\346\275\341\"r\276\240\212\207<m\007\215\274\353+R\275\031\334\304<\225:>=\371\036L\274{\320\340=\022\302\223\275<\355\352\275*\273\372<\363\333\317<\023\035K\275ls\231=\266\033\235\275\000\\M>\300\274#\276l\352\276\275)\000g\276\312\270\266=9G\312=\025\2011=\307\245\213;\365!\342\275q\235\255\275|b\026=0\177\351\275\376\335\205\275\014]\016\275l0\021>\237\216\235=\302y\260=\032\371\277\274\301\356O>r\215@\275\237)\305\275\024\214\363\2753\177~\2759y&\276\014\310\273=T\376\212\275\232\224e=\353h\257=\270\231s\275*E\277\275\301\3426=\262\225\356\275b\372\242=I\002\250\274\277\334\326\275Dvf=u\321\377\275gC\200:\202\234\216=`@\355\274\311y\004>nBh=\276\014\255\274\027I?=\013\023\333<Dg\264\275\234\003d={D\316=^\355\032\274\341\221\315\2749\263\266\274m\250\017=\361\231\020<(\331\232\275\316v\333=\363)\307=\305\360\317\275\243Z\342=N\351\306==\350\266<zR\331=X\340\014\275L@\020>\230\254=\275o\224\235\275\271\013\013\276Z\257\2159\324\004\r\275}\253`=\000\016\320<kL,<\321\206\213=4\034\206=\360\333#\275\216w\317\275\304\224\370\274e\334*=[\277\211\275\216<\020\275D\2424=\376m,<\226f\365=\254Z\214\275\327Yf\275i:]\274\301\346C<\202\335\337=(\343\253\275\270b\203\275\216\240\306\275\345\361\305<}\274\317\274sJ\302\275\036oA\275z\271\210:\007\310\020\276\026^\234\273X\253\344=\240\262\364\273\354\275\246\275L\233\016\275\022Y2\275\370\'\304\275>aZ\275\003\270\006\276o\024\037\275\340\250\204<\326\213\"=\204A\377\274\377\231\006\276|S$=\374\370\346\275\002\272~<\\\344]\273g\215\205\275h\322I=3\277u=\244\275%=I\016}=\332\332|<\337\347w<B|\210<\367\313\301\273\347\035M=\032\263\233<\356\316\023\273\353\255\204\275\304\252\255\274|%\263\273\306\n\337<\3326n=\317\317\243=N\362\312;Ky\212\274\206\021d<\354\326]\274\331\204\253;\034\037\006<\237lN<\006e\007=\360\222\216\275\311\025\244=\353E\251<\265\001\351\274\364\271\227<\013\324\\\274z\310,=-\2352\274x#\246\273\316\017\247=\324,\361=\240\035\202\2753\001h<Z(\313=\366k\001\275\3211V=>\317I<_\351\275<K\263\254\2722\363~\275j\013\206=s\343\362:\030%\217<\225/\331\275.\025\374\274\362\232H\274H\266\014=AL\367=\305\357\222<\rK\211\2751\343\202=J\233Y\274I\274\251\275\350\336\307=G\323\006\276\276P\227\275M\336\343\274\0202\017=\201\243@\275\370\237\305=\227\027\373<\356\020\013=\356\022i=VS$\275\321\273\317<<\005\272=6\305\234\275\342_-<\377N\270\275\271%\341\275C\206\323<*\001n;g\035\"=\032\301\217;o\315\206=\236\001\276;\010\361\224\274ki\237=\214\034\211<\243he\275I\341\254\274\241\270\274;\336\n\021=\320y\334<\254D$\274\323\320\211\275\341\244B=\370J\224;\007\315\317=\260=\031=ua\007\2740g\323\275<G\210=\251!\302\274\361~\027\275\245q\000=\244\010\016\275\327\214\032<\342\005S\274c\020\211;\317\277\316=\"\361\013<u\232\333\275Z4u=\to\301\275g$\013\2752\243\004\274\\\033\305;\006\t\024<\311B\203\274\246\025\036=\270\363\017;\203\323\227<\242\356\007=\203\3260<T\216\326\2751-\007=\334!\021=\3524\342<B\200\304\275\373\304\311=\014o\237=O\237\246=\301N\230=\333\306\217\275\243~\030<|.c\275)\037\342\274\360\213\343\273t\355\201\274\333R\'=\222\2608\2756\3211=\350\334\263=nU$\275\267,:<e\224\201<\235E\013\275\027\013b<\345\351\307<\234\023\261\272\313\205\245=\226X\025=r\231\022\274sxs\275\265\002D=p\027;\275\343\276\021\275I\257\016\275\322\317y=\230\017\243\275-`\333\274o\217\022=\330\324u\274\000\253\316\273\227J\010\275\310\267\363\275\275@\'\275\215\323\006=\274\267\206\275\2632\352=\320Z\244\275\203\241\264\273\242\265\200<#\277\213=\304~\r\275:(\210=\222\311\216\275G%\203<\336\031l<\252\270\017\276\276\273\006\275\221+\2738\0069K;\006\264\201\275\361(\274\274x(\230=\243J\035\274\267>\312;;\355\360;\276\030\202\275\260\007.\275%\234\211\275R\340[\275\233\330\033\275=\275\224\275|\227\260\275\231\017R=\276@\323\275\373\\\005\275\215\303\356\275\000\252#\275V\301&\275\212\330\013\276\216\257\362\274\342\311\323<d\230\035=H\220S\274Wg\243=\313\225X\275\241N\243=J\272\004=;\245;<\213q\001\275n\233^>\365W^=w0\001\275\004\245\n=\315\374Y>\t1\031<\366\016H<\270\313Z\275\030t\231;0A\236=\274\266S=Q\335\271\274\206\261\016<\316V\370\274\350D\241<~\304\220=f\005\250=\336\300\021\276\177k&>\272 \321\275\010\320:= s\271=\311\000,\275^2\311=_\375)\275\255n\001>$ \351\274\025\332\017=j\260/=\301\273\265<\007\204\245\275q\215\241>\333\234R=\257\177\274\275\227\027\016=JU\263\275\354\232X=\240\342I\276\340\036\240=/\277\316;j\364l<8\341\233\275\003\345\021=z\220\245\275\331\276E=\347\346T\275\240\223\370=\231\301\\;c\277\000=)\356O=\226\271\311=#)b\275\334x\003=\016\2354>\330U\337<\227$\260\274\325>\272<\241 \033=\2553\235\274\2332\034\275\370\331/=(\247B<u\200\243<\311\325\000>r\322r\275\345\275e\275\205\332\'=}h\001<\300\211\023\274\215m\326\274\344\320\256:\376l\317\2747_\237\275\220+\343\274\215\361\204\274\376i\346=\n\261d\275T\222)>@\')>4\357\001>\212\n\020=,r\212\275\247\323\253\272\350?7=r\361\232=3\215\240\275\271F\276=\207z3>\312(\227=\335n\356<R\337@\274\242\361]<\005l\351\273\243E\210\275\224\343)\274\340\372*\275\200\352\277<\314\220\217=+\211x\275\342\002\217\274\313\3676\275\266\331\337\274\241\217\316\275\200v\313\275\304\321i\275x\276\312=\275\"(\275_\333(\274E\203\242\275\252% =P\321h\275\324\323\215;\271I\362=_DI\275\215\263\236\274&\020\263<\t\007h\276M\230\274<\242X\314=\242\312&\275z\262\214\274\301xu=\001\336\242\275?\201\014=Q*\265\272\260\264\336;\201h\357\274\206y)\275^2\220=H6\230;\013x\235=B2\277<t\034\326<\244\026Q\275\n_\321=+\214\362;NHF=\270\257X>g\3505\275j\240)\275Nm\t\2764\277~\275Z\002`\275\246\326\021\276\006$\362\274R\351N\274c\300\203=o}%\275p\336-\273\036\250\201<\306(\004\275\337\243\226\275\310\031\242;O\342\020\275?\263m\275\217\374\247=U\177\r\274k\014\255;\310\010\221=\310\373\204=+\240\027\275\023=5\275\213\355Q=\\\0024\274:\037\242=\273\022%\275W\356\216=\344\251Y\275\277\263:\274_[U=\000S\254\271\347\251n\271\205\253\"=\217C\346\274\202\3414\275\375\325\231\275\n\206\237\273w\224\247\274]>\004\275sr.\274\214\257T\271SV\372\273Z\234$=\2522?=\377?\007>\247\276\005\276\025n\255\275%,\016=\352*\021=\233U\035=y\027\204\275@\0262=\303|\010<~\211\212=e\021M=\217J\255=}0\353\273N\336\"\276\260\364\020=\252\323\232=\370\254\037>[\004\007>\267P\361;\326\241\277\275\375\361N\274\363\211\232<6\326\247\273,5\004\275m_\267\275\207\267\266<\261\3730>%\263>\275\255\335i=#\013\340<\356i\246\274\03354\275\266\341i=c$\336=N@\324\274\310\336\216=\273\223+\273\345>]=\233\361\253\275b\367\353\275\357\260&\276\\s\224\275\247\360W\275\246gv\275\311G\007>\204\275P\275\3703V\275\204\363O=\252\345\207;\276\010M=\341\250\313\275&o\026=\346:}=0\356#\275n\371\353\273\235#\267\275\362\364\021\276\234^\023\276\272\216\240=\346\267\245\273$\215\215>1=\201=\354i\013=\340nv<\360T\275<\205~\321\275\300\212\301\274\\\247(\275\027)\325\273\313\226\252=f%\341;\207\261x=\2549\031\275\274\233\335\275\251\364N\275\257.7>\356\304\036>\t\345\002\276\314\304H\274\r\223B\2749\303\224=\177\351M=\007\023\340=\247<\267<\032&\201=\347\354&\275:\277\326\273\036|\032\275\360\321\223\274\231z\231\275\265ab\273|I\030\272\242Ge\275\365\301\002>8v\302=m3\376=\016\346\240\275\242i\225\275\275@\214=?\234\352\275\346\3156=\267\201\034=\303\373$=x\\\375<\035\014\333=\335.\237<\315\336\177\275&}\201\274x;?<\272\033\203\275\233\350d\275\rF\234=\325\302\270=\337*\003\274e\210\252;\355\273L=z\244\273\274\002g\221\275h\227J\275\t&\201\274V\274z\274\217\262\216\274\0277X=X\344\363=\221K\007\276.\253\'=}\233\373=N\310\017\274J\360\272\275Nu\'=\255\000>\275\221\343\315=$\357\322\275\333\222T\2756\222p= 0\232\275\205\314\263:_\034!=\273x\027\276n\323k\275p\200\377\275\273\255\266\275\203\260 =\036\177\177=f\307\311<\031\364\367=\010E\027=\177\016\325\274\n\036\036\275\222\004\242\275\247\331\246<\205\343 \275\276]f<\231*j=\251%\351<\202e#=\231\304\375</<K>\241\340\031=T}\003<\250\346\000\275\346\216\311\274h\355\260=\315\313\006>sN\034\275\237B\n\275\365\032\340<\301\345\022>!\273\032\276\010`\213<\306I}>\343(\336=\002\373}\275\252\016\360\275\014\334\210=\372\363\006=\372\322\006>/\242\355\275\212\363R\275\316\236e=r\010\267<\202\234\350\275\020\251\010\276\025\005\353=\024\030%;\214\272g\276#W\010\275\264\373\007>\005\003O9n\004]\275\206\254(=\300G\234=\177#\343=\366y\224\275\267\316\217=\272\275\014\275\210 \025\275\226\3378\276\036\341\202\275{\347\351<\314H2<\tJ\210=\025h\357\274\323r\\=\255\364v=\035}\026\275\035x/=\276G\224\275\362YV\274K\360\001:\304\313\303\273\257\277\250=@H\265=\"n\243<\n\237\215\273\220\257\317=\210\220X=9n\234=Ahu=\263\242!=\211\272,<tV\306\274\2154\344\273\235\254\025\274of{<\375\274\001=\340l\001>\023\013\255=\\\340\244=\'\007\301;\032A\032=\2533\013\275\374{K=3\237#\274,v\031=\220\361\204<\232\020\304<%\327\006=\246\357\004=\010::\275O\254\351\275\271}`\275\267\310)\275\221\325\336\274}\304\316<\377\031\247=\337dR=\177\364\256=j\354\201=B\221\350\274\361p\211\275\242F\274;\027\032\206\275m\322\361;\275i\003>\302V\232\275U\003\356\275\325<\200\276\214M\t\275\347\021\214\274\303`5>\230QP=n\027==+a<\274\006\277t\275\003\254\227\275eKr\275f\210\\=\376d\312<\260`\262<\302\304\325=\352\360 >\025\256\r\275\366\2426=\250a\322\275\353\\\367;\203\332\275>\224\376\">\207\226E\275\344Xs=\033u\226<\026\316\266\275\335\330/:\334\205\205=\276\037@\275\277N\246\275\024\221\227=\306ir\273>T$=r\323\315\274\204\341(\275|\tG<\377\320\370\274\004Z\001\274\'w\002\275!D\237=|i2\274\317m.\276\\q2=\246.9\272\010[o=\213Q\365<\240\244\267=\3541g=\317\213\n>P\204>\274\247\177h\274\370\212$<\347\203v=\376\262\364\2752;\201\275\264#!>\0009\317\274\"\316\264\274P\355E=\303Q8=*\222\"<Mn?<!\033\221\275t\350\311=\036U\266\274\230\214\177=\312\270\317\275\006n@>\221\330\243\275Mg\234=\352\210\\=\301\213>\275\030\326\t\275\327*\023\275\024\206\262\274\333\360\250\275\3147(\275o\302\301<\202\032z\275\352\304\031<\254p\264:\337\343_=\264>,\275Ua\t=&,\326\273\323\323\220=o\247@<;\351\263\274\t\315\000=1\311\373\272\222\036\262\275\361{\034=\2614\326\275O\333\307\276p\254f=z\025\243\275\367\031\363<\'\024C\275\263\206\320\275\335Y\340;5z\257\274\246\n\013>\013\225\200\275T\362\342\274Y\377\306<~\360D\275\263\3714\275\220\347\030\275e\261\322\274\361\336p=\025_\022=\032b\217=]a,\276R\300\320=\301\216<=\2555\"=\362\376\334\274\325\215\372\274\337\014l=\007\300\230\275T\\\350=\023\007\374\274E\353}\2742\324\023<\236[\265<N \207=\213\327a<\244S\221=\361\305\252=\362S\001\276A6\017\275t\205\325<\010\021\022\274e>\270;d\245\252=\205\374\317\2739w\240\274\231B;=v\310\366\266\326]\255<\253aA=\265\224\013=\225\035I\275\264\3618\275\213@\250<\017[]\274\221\262\001=\361\"\205<&\260h\275 \331\010\275\317\342\275\273!\212\257\275l\024\007\275j01\275h\323w=\375H\200=\005\010\225\274\213\261\231\275\317\343\0179\225\2329\274\232\200R\276\316\021\n\275\340\362\205=\020\\7\275\264\226\003\276\307\3466<\300\205\245=\n87=\356\007\326\274\215\'\355;\314\001\365\272H\217\';\307\373.=\242!\315\273\004\355\r\274\343\253\236\275\306\230\343\275\000\356\260=\300\002\342\275\0145\004\2756\001\262\274\232\374\002\276\366jV\275l\205d=L\242\247<\275\247N\276\031z\007\275`Z5=\215<\235<\211e\263\274-F\235=\372w\376\275np\314=\365\031z=m\224\005=\342 4\275\023Z\242\273\242q\020>]\003\311\274\234\333 \274;s\"\275r#\306=ufm\274\206\3703<\231\326\340\274\343~\244<\223\035\215\275\310\310\311\275\251\344\347\2755\023\000=m\301\252\273f\312\304<0S0<\0030\352\275\223\026C<n\034%=$6W\275\374L\223\273\221\032f<\363s\354=\277\322\220\275\263B\340\274\361\362\355\273\t\000\205\275\246\335\010>d<\022>\377\320\365:\371\270\023=\365\262\3669@\027\305<\230\250$\274Up\353\274\017\261/\275\033\363\033>DR(\275\351O\020\274\261\356R=\205\350\374\275\021^Z\275y\321\003\2767\342\350=\016db\274g5\177=\251j6=\314C\203\274\363\"\203;+\263a\275~s\356\275\310\245~\275VV\027\275z\017\344;\307\257\344\274\216\374\323\275\302\343~=\243\203\224\275!\275\000>\206D\226\275\272\245\250\275[\202\240=\021\351\374=a//\274\232#\303<\224\225\203\273\024\247$\276\220\177(>\221\272\205<\n\221\027<S\341&\275\216a\213=n\274`\275\355\256\244\271\243.J\272\\*\273\275n\3247\274\016\205\002\275\236\245\275<\212_\240=\377K\234<\007\353\372;f\317\266:\362w\000\275mU\243\275l6\222\275frS\275\032\204\302\275\321\263\356\273\211\216\206\275\324j\344\272\235\213\023=\215\016B\273\322\366\262\275\314\2172\276 U\314\274\352\340O;.\\\335\274\365\006R\275\203Y\305\275\341\354\340\275\3264\345\274\223\270\263\2729\255\216>I\022\246=2`\343=\336\242\363=\306\036\010:\211\211\302=b,\242<\024Fu\275U\217\240:w\000\025=\217t\200=\322\302\t=x\311\032>D8\201=/\367\271\274\253\204\252=N\376z\274\027\333\311=\361\0275\275\276\340\264\275\2207\205<o\335\353\274\303\014n\275\031\007\022=\243\2779\276\003\342\022=urP\275\246}]<\347:\257\274F\370\373<\036\222\014<\261\'Q\275\366\314\340\275\253{{=\253\017\333=-i\024=<\374y\274N\242(=\001u\'<p\277<\275^G\216=\277\225<=\332\374\261\274\373g\243\275\036\000\313\274)\205\221=xy\333<|\275\251<\217\027\245=\032\232\255\275\363z*\275gnF\275\010\204v\275\000-\206;\026\023M=p5\n\275\243\037\200=g\177\254=\026w(<\246#\037;!\342\217\275\370`O<\260\177.=B\220\324<L\0065\274\243\224J\275\037\216\235\275\003w\265;n\004\234< \257\003=9\352\t=E\202/\275\2743\342\274\311\221\214=\341c\024\274&a;<\022\341c\273b\306\237\275\240\253\275\273\240\003\303\275\223\250&= \237X<E\240D=\024\267\230<\210\257\325<\354\355g\275&\257P=\267J\201<U\3367<\260\243\231=\016\275\220=\2462G\275\254\257\264=\037\347\"\275\305\320\243\275]\266\323\273\336T\223\2743$\252<Lkm=\347\"\"\275\0275\n\275\330\3415\275\352\241\205\274v%\264=\246\273\212=\r\327V<\271\203\007=I\036\025\275-Aa\275\005s\364\274\220\364q<\353\366\203<\316\326\336\274\267\004\314\2753\364\333<h\023\265\274W\014\010\276\371\022\367<\343\212\261\273\341\222\353\274s\2456=\037\305\375\274\251E\r\275\303\301\037\273\000\275\033\274a\002N=\314j2<\272T8\275\265\335\311\274\367\265F\275\351\303,\275j\017?\274z\022\305\275\356\255]\274\tz\313=\250-\351\275*+\240\275H\262\341<\277\375\277\274\217\364h=\342\263l=ee\252\275\241\212M\275\013#\025\275o\352\205=!\247\311\270\r\231j<3\324\r\275Q\305\265\2747\307\024=;\221y\275|R\212=z\320\344\273Z\220d\274\244u\300\275\332\211\005>\220\001\237\275\350\327g=\253\025\r<\277t\302;;`\316<0 \250= \230C=?\273\326\274\237\353\215\275\323y\201\274\332Dy=\027\222\312=h\377\246=\351\223\212=\362\314@<\034\230n\275V\211(\275\002\243\335\272\002`\r\275\034\241i=\246\204\202\275\207\0008=\026\r\272\275\340qQ\274\221\203\350;\021\002\213\2745\350\333\275\234 -=\016\007f=\000h\270<\022*;=\304kp\275\307n\305;\327H\223\274I\000\007=;F\320;T\256\300\275W\263\244<\254);\275\353D\212\275\016\342O=\257M\022\275f\3765:\276\344\274=,\274\000\274_P\207<\355\271\007<L\210\205;\244\n\277\275\365\334\023=\273\331\002\276\256!\200<\225\031d\274\t\325\316;..\316=\254z\\\275Y=\037<\315(\212\273\250q3=\241\313\313=T\207r=\227\335P\2747\222m<\017d\000=\354\260\306<\354\341c\275\316!\247\273m\223\236<\273\r)=\236R\211=d\224O\275\336l\273=a\335\256\275Z\350\211=\025\217^\275\210\245\\\275<\'\007\274~\200\322=2{\210\275F\371-=\274D\263=\334\216\212\275\206\036E\275\274{\000<\260\037\216<4\221]\275JU\000\275\254D\021=\3172\377=\362Y]=\247\372&=\312\303\365<H\342\201\275v\234\313<\016\210\304=\307\217\333<\013\301\375<Q\254\020\275\205t\231=\236\232\207;\340b\353\274\0019\301\2755\001\034\274\205\334\202\275S\374\034<=\217\325=\240\334\001\275\035\207\347\275\210\037H;\331\225\361\275\325\300\017>?\022\262\274F\202\375;\013\214\245\275\276qM\274,\350\211;\3147\310<\253\356\261\274\232\rd\275\024A\\\274\005\307~\274\234\275\346\274\033*\004\275o\235R=\232\235\302:hR\250=G\244Z;Fw\275\275\014H\202\275\034o.=\306\350]=c\331\205\275\237d\034\275\034V\240\275\024\245\326\275\302\240\274=f3j\275\204\021Z=_1\253;Z.=\275\276s\t;\356\345\006>\363\233\237<:\217\266\275\327\240\330\274\206\031\326;}\013M\275\342Tr=\320\374\254=H\364\352=\207T\004<0\004T=\303`\210=\363\230\340\274iNX\275\370\306\007\275\\\316\213\2750\205\016\273\243`\033\275\217\2077=* Y=\323\241\020\276\032A\225\274H\221<>\240q\366\275\335n\331;\177\330\'=6\002\216<\324<\245=\215/_\275T\005\002=e\030\022=\367OB<\r\325^=\334\230\215\275\036\335\034\275\026\026\377;\334c4=\376\235\304;\337\320\340\274\021\316\205\273\005\377\340;5\234\224\274\270\242\302\274\346\373R<\245v\326=:D2<\213\030Y=:H\211=\305\260\262<~\266\322=\354A\315=\212\005\016=\353\222\317\274\234\000\005:\333\020\217\275\221}\000\276\013\374!\274\350\272\357\274\001\232o<\306>=>\252\312\264\275\320\005\266\275?\324\t\275e{K=\333\355\005\276\037\310\240<[\026\t=t\'|=j3\276\275\\r==\000`\233\275\033p\202\274\274\034\032\273Wk\241\274\303\305D=%`\331=[\315[;M\226\353\275\215\212d\274@\263\220=joQ\2751Nw=\350\223\355\273\215;\365\274\345\202\277\275l\251D=\016\n\000\276\245\254\256\275J\355s=\005\202\260\275?\364\225=.\025\253<|$\304=Zm.\275\016\340l\274\274\212\354\275\354\214\353\274\033h\017=\370\221=\275\371\366v=\030M\210<\020\236\205=\006\211\026\275\224-\202\274 \313\314=<;J=OK]\274\335^\275\274H\204\313\274\367`\"\275\006Tp\275\200\211\037=\033\037R\274\225\274\303<\234\033t\275\023/^=\314\256\232\275h \214\274D\272\344<c\240\310<\303R\362\274\257\330\222\275LhA\272w\'\377\275H\352\342\274\331\275\033<\262\025\004\276\270\202\213=\357\300\344<\373\345/\276c\025o\274\033p:\2756\200\363\274\274N\021\275\353\023\273\272\346\305\236\274\357\236!<\227\354\306=\331p\211=l\270\216\2750~\271\273k\245v:\336\374\273\275\245\257\221\275\001\326\027=F\241t=\340\227\356\274.}\024\274\354~\202\275qo6\275}\367/\274yR\204<\031\364i=\350~\320<\2003\217=Ce\"<\251\316\234\274\217\361\014\275>\247\265\275A\364$\275\033\316\002=\377\022\206\275k\317\202=jp\275\2751\200e=\213\270\267\275\273\210\321<\010H\213\275-^ =\322\222i=\274,\326=.{\204=\274\226\216\275i\221b\274\200^\230\275(\204\234\275/\350\252\274\373\316\204<5\016\005\275\005bq\275\002\222i\275\353W\367<s\222\210\275\212\323\234<6\241\245<v\234\363\2737\030\322\274\357j\356;\352f\333\272Y\257\252=\301=\320\273w/\222\274^\350\213\274\373\215^;\325\234\256=}\r$\2751%\202\275\233\r\266=z\202\375\274\225gm=\277\206\273<\200O\326\274$\326G=\017\215\245<\374\343\357=5\325<=\261\373\202=\353\275,\274\224\365\240\274\350Z\205\275\013\300\301\275\377M\014<EsB\275!E\213\273Z}\t\275A\341\031=\270\202%=\353&\027:\201I\177\275\364\321\204\275\307A\261<\304\255z=\346\372m\274q\3127\274\317\346\276\275H\344:\275\tQ\247=i\354\377\2745\265p\275\035\014\033=Nl\005<@\023\230;\246\356\331=+\364\241\274r\366+=\217/e\274\216T\207\275\245b<=Qr\245=\361\244\341:\307\t\030;\225\351\242\275\347\202\252\274\357\377\257\274Me\206=\250z\033<U\277];\027\210\203\274\275\2364>`\272\336;\324_\247=\371\002\252\275\255\224\033\275\016\350\377=)+h=B\037\007\276\326\346\317;q\214\340=\325B\323\275C\356\372:W\350*\275W\357g\275l\003f\273\024\207\270<\002[\232=\220,\341=\300hV=\242\272\004\276\030\242a\274Dw\351\274\030\227+\275\356Gb\275*\333\336<\245\277]\273\334\3053=\304\020]=\207c\343\274z\200\013\275\022\274\006=\255\343\374<\335\252\331\274\271\200\023\275\342\025\243=\003\327\t>{\017\016\275\036\2355=V\241\352<\274\251\352<\276D\201\275\303\035\006\275\311a\026=\221jQ\275\374S\242;\262\177\201\275Js\003=8\357\006\275v\3465<\230nZ<\032\010(\275\t1\201\275\242\037\004=\244\2670<\350g/<u_\355\273\025\r\342\275\253\322\275=b\307J;\360?\306=^(\372=b\341\036<L\355\351\275\302S\366<\275sL\275\324\232w<\231\325\000\275\3334\256=\264\360g\275sc\026<\335;\274\275r:\024\275\300\206H=\236\327+;6\312\344<kc\024\274\351;\320\273/\000\224<j\246\273\275 l\035\275\224\305w<\264\354\003>D\351s\275\354\275\312\274\214\037\237\275\367\276\024\275\037P\225<\3355E\274l\301<\275\3210\272\275\250\252Z\275c\235\035\276a\306\374\273\017\3150\276$\230\322=\360$\277=\272\363\255=\227\263\261<\346\r2\275\2243\004\276\177\365V=\027E\365\275\2647\237=\254\025\357\275\206\241\014=\213\256H<b\321!=\370\205p=\320\252(\275\033\311\357=\371\236X\275wZU;\266\2430<\333\333\030=\036E\225\275\326\223\330\274\334\366\214<Jx\356=Gy\016>\352?A\272\347\014I>\276NR>\302\223\203\275*\374\020\276\312\260\302=\3352\244\275\017\030\037=\223\206\375=}\005\364<\350\203\033\276=\2721=\3053\207=/\241\335<\303\264w=\3156\213=\277\235\211\275>\335\203=\225\200\202\275\244<\031\275\304\311\027\274\201\311\207=\005\265\234=\260\207\263=\355\271<>\371\276t\275e\367\305=\244\265\275\275\253\373\004\275\254\216G\275\037\262\245\275\300\360\302<e\325,\273[\000\243\274G,\214=\003\324P=\303A\337\275\001V\027<\210K\251<\235\331\t=.!\245\274(\200\002\276\021\246f=\334\035^\274a\273\016>n\375\005>\262\244\320\2754\305\004=Zi\215;\207\010\354\273\312\270&\275\364x:\274\331B\025\274\205cN=\241\210\357\275Z\3137=s\022\222\275\036\3201\275\033q\232\274:E0\2744\260H\2759&p\275\3147\232=\203\032I;\354\311\233=3\254\215\274U\221\206\275\275\225\251\275\360\"x=$\264\357\274\376\004\013<\004\366\241;\230O\246\272\006H+\275.\204\301\275\335\221*\275\014\377\325\275\327\"N=\317ig<\347\n\216<}\204-\275\210\277\256\2757.>=\213\217\r\276\023\243\222\273\364u\231=\204J\033\274^\354\311\2759\251\225\274\353\226\266\275\250\263\350\274\203\276\221\275Hm\370=$\304\014=\"\345\224\274\235\234\033\275{R\267\274\253\370U<v\002\220\273\3007\371<\027\240\251:\326\257\303<\233=-:(\3463\276\005\'O=\254\272\245=/\227\244=wO\200=(\336@\275\330\377~=\250v<\275\351h\211\275i\3160\275\320\'+=\241S\010:V\316M;.\212\021\275\312\"}=u\030?\274\333\013\347\275\303#,=\030\217\000=\252k\"\275\274I\321=1\022\210=h\272R\275\232qC=/\253\215=\257\275D\275;c\257\274G\231\005=d\230_=v\2344=]\220\266\274}\311]=\346*y\274\240/L\275\227\350\275=\376\305g=\264\211\023\276\001\326\310\274h\024\211\2747G:>\225Aj=O\277\242\275v\211\226\275\024\257\221\275\235?3=\213\244\326<\256\332\200\274\\\266\213<\2436Q=\227\244\207<\322\236\275=$!\261\274|@\002\273\345Br=\343\321\224\275\267x)=\245\014\340\274Ce\241<\30678\276Y\213:\275\356&;>J\004\313\275N\233\212\275\306\227\r\276\266\0015\275\227[\247\272h.\013\276\001\232\306\275\353\236,\275\244\365\324\274\264\326\223=d1\036=\n:\247\275\232\326\311\275\376D\212<\001\211&\273y\356e=\230\t\221=\023R \275\324\360\303\275\245\3660\276|\247M= C\334\274K\014\270=\217\246\206\274i9\031=\336\276\210\275\255%\341\274\203\034\236=\034v\305\273<\277\000=&\347\210\275\354\037\203\274\272F\216<!\031Q\275\205\357G<\225\013\275:\207;\374<\246Cs\274\333\373\017\2755|\360\274\200\0162=\'\005@\274\251\251\325\274Q\375\271=\301\341\024=E\304j\275\274K\204\274\253\372\331\274\\c7=1\364\255=\'7\223\275MBS\275\337\224\216=\320\315\003\276\240L\034=\2343\215\2753\355\323=]\036\371\275\234\231\370\274\215\340;\276z+\351=\246\032\025=fK\034<\272\215u=r5\030\276\205Pf=#s_=\3423\335\274\356\254\274<\316\360\t\275+`\330\275}\3133\275\324\370\220\275\3036\335\275\211x\206<\326\'`\275o\371@=\235l\253=\334c\314<\020\037%\275S\301\220\275k3\210=\r\016\317=~\023\352<Z\201\234<So\233\274y\276\'=7\231\022<%\t\032\2730,\'=4\256\032=\361\321\374\272u\3465\275j\253H=\201h\222\275\342/\320=\\u#=\022j\006=:\320\254=\317\311`<\006-\335\273,c\377\275s\027\263<}\020A=\235\255[=`\235\247\274.d\342<\342`\007>x*\256<\r\264\027\275u\2762<6\301\324<\241\372\204<\201\374S\275\354\220u\275\"f\263\273\222\376\202<\337q\226=\357\236\246=\270j\r=#m\222=!\217H<\220}\363\274c\270\'<$\204r=\270\322\216\275$\364#;\344\276E;z\264r<r9\'=\017G*\273-\230\363<L\344\020\274\276@\r\275\013b =\205XT\275I\177\013=\265A\232\275\324%\354<\343Y\006>-\013I=w\204\027\274;o\230\275\256T\322\273\331\037\312<<\326O\275\243\220\343= d\371;MO\037=\257\337\017=\376\323b<\356\001\324\274t\242\223=\246\201\032=\255\242\275;\212\177\375\274\260\332\351\275\010\0377\274\020\211\203<\3256\237\275\204\020\353<O\222\314=\344\026\276\274s\247\355\274\364\232\365<\252\250N\275>\036\231=]uC=8A*\275\362>\311\275\374\345N\275\214\020\006\274\211\270\002=tNV=\336\034::0\246\265=gy\022=\010E\\<6\353$=1\307\205=K\225\352\274\2572\205=F\344u<?\000\014=U\257\201\275q\204\240=\004\336T\273?\362\002=\241y\351\273bH\216\274\033\306\003\275W\235A\274\022\322x<\276\374k=\321>\213\275\225\003x=\003\362\265<0P\314\275*\300k\275*\223\034=~\250t=\021D\'\276\325k\327\274>i\272;\227*z\275\277\354p\274\346\367\021=7U\246=\032\t\215=\205_j\275\252\014r\274\266\020\203;\002\316\353\273\203\343\326\2754]\251\272\240\302\221\275\317\260\002\275 \200-=\321\272\267=\375\276\304=U\376&\274\272\220g=\274(\254=\016V\217\275c\311\340\274\255i\257=H\033\374\275l\006\322\275\331}\036\275\220\263y=\235\241\265\2751\t\260;\242\224*\275\342\344\206=q\250 =\362b\r\276&\226R\274\261\312 \275\032\363#\275Z\370\241=J\217\\\274\244U\302\275\273\341\375\274_r\264\275Q9v\276\r]\334\274!\243)>\353Cb=o\010\201\2758&8\275\006X\037\273\243\303\270\275\00548>\242\216\323<\032\013`;\233\202\r=\200)\247=\215\027\350=`<\221\275B4\273=Ig\233\275o\326\177\275\326\215\005\275\367\023\275=\005\016\220\275|!\013>_\235\245=\243Z\227\275\357\004\300\274E=\363\274\261\200\001\274\323\324\242=X,\273\274I\353\263=u\217\203\273\007p\026\275\321\203\235=\214\247\301<\026\333\272<\2037?\276\030s\331;\243\t\267\275\371]\010>\001u\260;\211KI\2769\335\201=\303U\251\275\206\0172<\010\200\372\274\270\003\027\276\210q6>\317m\321\275)@\001\275\034}\252\275\327~\027\275]s\026\274\275x%9=)\033\273*\225\364=\2200-\276\331\315\376=\366\213\202>\377J\002\275\326\035\312=kV5\2764\'7>e\357?;\265\304Y\274x2\031>\247\033\030<\316F\323\274\010\230\036\275\r\010\234\275\312\245\032\275%\243\225\276x\337\220<3\247\260\274t.g>\252\264)=^\304\217=\2507?\273\025d\"<\363l\210>q\005O>\320\001\361\275-\334\"<;^M>\335\276[\275\003t\205\273T{\013\275H_\256\273\326\365\337;\303\235\237;y\251\020\275.\300#>zT\357\274\213\242\006<\343V{;<\335d<\325m\213\275\224\375^=#\240\230=l%\320\274\353n\251<M\224M>\361\272e\275\223\t\207>\"\001q\274\230\306\204\274\211@g<\031w{\276b\274:>4\256\276<\300\373\177\275\032\311r>\227\271o\273\222;\352\274E\240\235\2754\354x\276h\023\211<,P|\2760vL=[\257\007=\325B\306=\365\313\235\274\205\262\024>J\277Q=_\316\375\275\307Y\343=A\222\271=\033\266\275<\016\251\274\275\337}\027\274i;\307;y\211\355=\357\237\240\275\235\233R=Zs3>\251\232\022<\350/W\276\361\t\317=T\333I;\223g\037\275\373\256/\275\214\317\t\275\370\000\230\275\035f2>\257\354M=CH\034=oY\324<\347/\\=\342\352\344<\025x\340<\255\3108=\254\220\246=$\226\013\276\242o\362<c\006+>\230\224\306<\351=E\276\266\275:\275\247\264\244=a\004\030=N[2>\347N\201=\257\031\031=\273\341J<\000n\276\273\037\037u\276]\234\321\275\024(M\276\330\016\342<\360\374R\275\006\3212=m\035\177\275\357\261\342<<\370)\276i\264x=\255\021\006=&O\362=B\316\250\276W\257\3379\234\2028\276\275\254\261<\370\354c=\304\266\200\275U\332\274<{\351\024=@\220\371<r\345\214=\035?\225\273\300\246>\274\352b!\275V\224\246<\n\266}\275\022\017\376\273T\353\233=\306%b\272\236P\273\275\272\301\220=\036\3771=\361\274\243<\242\020\022\275\260\035d<z*7=,ZH\275\231\361\257<\312\324J<I\234\311\274K\255\020\276\240~u=\221\253\356\275\021\262\033\275\343-*\273j\313\330=\3040\272=aPk\275a\\\205\274\351\014\217<\310\007\305<\352\301v<\240\217\213\275b\277g\275%/[=\373}p=\332{\001=\335%/\275\261\345=\275U\347r\275\207\270a<\314\216\031=\364cA<7\254\254\274\032i\357<Ik:\275\357\342\223\274\340\310\212<wj\260\274MI\323;\263\002\257\274\r\255\241\274\006%\013<\3018\352\274$\274c=\177\240A\275\217B\033\275Q\303==M\377\311<qC\222\275\264\264\213\275o\222\327\273\354e\240\275]\233\"=?\034\336\274\213l?\275\034t,\273\367\333\255\275\257\376\036=\351\220l<K\246\334<\312\025\257\274\357\367\207<\207f\035;\317n\013=DW\237:\306\277\214\273&\273\222<\325\346\201\275\006\324\302=H\030\200<(\313\304;\234<\312\274\006\275\343\274\214\030u<+,\310\274\206\234\031=|1\247\275G\357\217\275\243\266\236<Q\340\340\274\306\366\260\273\022r\000=\240\272\340\275|g\235<\214\315\276<Z\274\305<OMb<8\264f<8\004[\274\243\nM\274\\\r\361\275\210OH\274\224\251\226\275\024\371S=\364\354\332<\003Y\213\275\016\001\013\276\022\323e;\276\024!\275\030\263)=\217&\344;X\037\000=\263\266m=;\336\237=\273\322\352<\274#,=\025\243\215=\010z\222\274\013\351\035=I\276\036=~\242\314<;\357\006=47\211\2754E\177\2757\352\314\271\rv\274=\340H\274=\220\312\216=\017\277\363\273e\006\233<:G\010\276&\340\030\275\355\366\013\275b7\257<\224E\\<\353\377\004\274\326\214\237\275r\327B=Uf6\275\262\250I\275\3336\276={\020\352=\202a)=h\326\316\275F\356N=F!\247<\234\002\276<\3705\243<\0046\350\274}\005\r=\241r\356=)\276\021\275\275\374U;M\037\225\274\235\232l\275\177\302@<\206\366\222=jY\370\274\377\200\022\275\310\311$\275\316\355G<\364\202\230\273\021{\317=\2249#=\324\336g=%\220\366<iD\276\273\226\225\236=\335\275\005=\323]X=\214{\000\276)@\236=\001$\332\273 \273\007=`\204==xG\016=\034:\320<\003\353\364\273.O\217=X\r\250\273\250\034\234\274.\n\202=\017\330\275<\230\001\025<6\234\022\275\2216\"=\030z\211<\314C\311\274\310;\337\275\246n\273\274:\334\037=\264\355H=4\250\000=\210\256{=x\371\266=\256\342\305\275\307\316\016\275JgZ;\353\374\257<\323\2368;\374\306&<\363\220\241\275KE\254<\324\367\021<\2323\243=\245\026\224;\000\231\270=\336kj\274,\306\021\274\037\304\226\274\346\245\214\274\231w+<|H\260<\223\350\316<\354%\220\274\033\001\260<\205\305\241\272\273\006\226\275\024\206\242\274\021\362\007\275$\347\336<\325\324\270\275\251}\022\275T\034\361;\226|\362</\376\313\271\263\200N<x\233\365\274l\235.=\261\"k\275\240\270\223\273q\321\025\274\357\262\244:T\233\314<b\316n</\221 <6\264\316\274\360\"8=\005\227:=\261Md\273\036\240^\273\020(\030\274\354H\202\275#\275\213<\214\177\227=\026O\330<\272W\207\274\272\324H;l|\240\275\337:O\274LI =\367\211\263=\3657K=\372\025\246=~`\013\276\246\003\263\274;,\212=\223\3337\2757M\351<\225\371\350\275f\235\215\275\364D\020\275\234\220\021\271\177\002X\275\312\210\376\271/XH=\250n\211=n\353f=\374]\"\273\325#\223=\205\215+=\230\257\263<!\345\276\274\216}\006\275@\313\250<`\331\355\273t\304\371\274\3539\336=?\275\220\273h\216\334\274\030\326\231=\254#\016<\001\342\217=\261\277\273\274\377\227\301;b\304\025=\200\2775=9\364\206<\362\211\256;\315\303U<\251\356\377<\260\346l\275\233\375\311=\352\242\001\275 ;\001\275A\036\271<\323\260\231\275\010\356\370<\003\2132=,\3642=\\%V=\021[S<\276\315,=\261\307\204\274c\3351\275<w\202\275\3730\311\275\364B\212<\232\365s\275\321\236\364\274f\301N<\202*\243<\340\227\275<\212\225\200=,\031\374:\326\036\013<\311u7\275\365\335\302<[+\202=\225\3210\275 \016\320\272\034\315\362<XT]\275&\347\242<\214\365\326<\034\"\227\275>\006\237\275\'\026\363\273.,\005\275\030zE=7\317\212\274\207V\311=\225\023\232\275\273\271X=\204/\210\275\256\010\000<\353\'\331\274\322 \256=\177\217\243=\037\312Q;Y$\255=\234\231\235=\rN_<\252\375B\275\312_\326\272:\242=\275\027c!\274-\303\335;\332v\020\274\212O+\275{\210G<y>/\274\346:8<\350Y\r=\331j\337\274\371W\350\274\2333>\274\344\3756\275\204;\242=\234\315\301\275\023\'\223\2751\014&;\301\351\330\267\331\351\372\274\263\274G=\206A\231\274\332\3767;v\306#\273G\254\343<GWu=\250fE=\0275\244\275\261\202\206\275b\320\311<2q4=\304J\336\2746\021\003=\310@\371<\256\252Y<\357\271B\275\271L<=\260\215\240<\270\232\264=\316tJ=\013l\334\2751\r\030=v\211\037\274b\332\010\276\305\312\246\274L>\245\275\222\337\233\275cO%\275\2371\324<=\320\306\274\020{=\274U=\370\273FP\343=\037\240\322<B\332\262\275\363\366\230\275\237\024K<\"\025\247<\242y\264\275I\371\245<Hy\264;3]\366=5\363\027\275\322S\357\273Y\341\230=\356\177g\275\342\361\024<\210\016\361;~3\022\276\207\375\316;\260\215\254\273\327\363\035\275\374\346\370\275\275\314\336=\246\260R\274\350\344F= \301\026\275\232\214P<k\270Q<\331\325{\2751\300O\274\273?\243\275UPK\275\223oF=d\020\301=\242\310\254=\')I>W\'\274\275\231\016\334\273%\207\231=$\375\277\275JG\000\276\020\3024\275\305!\351<1A6\275\316\344\024\275\310W\255=\266\257\224=\243\025\221\275\031C\272<Ez\237<\305\205\n>\316\247\344<\370\002\311\275#\017>\275\304\230\250</P\270=\236@\020>\272\346\006\276\335\024<\273\006\\\216\275Kno=\016\023\361;\266\236\216\272\263\220\314\275\3000\242=j%\000\273\0270\243=!he\273\356Q*:X\223-\272\235\017\250=`\267\005\2750\033\346<\352|\004\274\266\"$<\355;\205\274N\231\342\275R8\027=\321\205g\276\256\366\020<\232\021\010\275\215]\302;\304-]\275n\241\004>\211-|=\275\342\t=\201\346\322\274E\n\271=]Q\025=\371\000\205\275\342\031\311=\331\033@\275M\214\302\275J\264\327\274)~\021<\372\2610\274\010r\035\275\206#\307\274\265\240&\275A\035\254<\301\354\016\275\036\207\311\274\t\023y\275\203\336\346\274\005\016\032<C\335\344\274\232\245e=\352\305\376\275\252\354\036>\275\215\\\275\231\036L=\370-A\275\245G|\275\335\366:\275\305=\320=\034\344\035\273\223\r\022\275\352\322V\274\2211\006=G\205\004\275\277\nt=\361bo\274{\251\241\274\323N\007\275*\245\007=\2449\216=/\202\355<\351\370\247=\334\331\016\275V\010\024\274`\270\237\275J\240\236=\336\340\251\2752E#=\272.\311=\\\314>\274r\245\205\272\021\266\230\274q\'\237\273\255\274\241\275(\256\244=\255\317f=sM\030=\373\302&=b0\020\274\372\222\356<x*F\275\250\254n\275u}L<\203\367\302;)\267\223=)h\231\274\311v)<2\347\241=\224\336\326=\214\205\207\275=\333\273<\035\"6<\014P\214=\343\005\257\274/\372\246\275;\347/<LG\322=\356\031\"=\003\023\254\274\324D\035\276\371\342\270\273W97=\273\371\254\275\237\'\211=?*\211\275\311\203\371<\037\264\330\275\026Y\337<\231\240\016\274\276\234a\274\331\307_=(P+\276\264>4\276\214f\t\275\267\257\037\276\336\325\313\274\010\216\362\274+\264\257=_\275#=M8X=\002\371\362\273\213\023o\275\036\020F=bD_=\330W\300=\361&u<KS\365;\345\211\374<8\024\351\275\017sw=\301\301B\275a=\005>\033\305\302<\206t\231\275\331\014-\275\305}\273>\200\254\346\271\025O\336\275a%\263=\357(\357;\277l\242\274\250T\310\274\273N\336\274c\325\263<2\225\216>\322A\034=\351\255\037<\230\026\031<\037\032\313\275\370\251\177\275\252\257-\274_\331\317\275&\270\026>\301\321I=\357\322[\275\217\223\252\275\243Z\326\274\252x\'\275\303;\031<(\271?\275\003\357}=\370\254*=\375GB=\367!\026=n\315\252\275\3263\352\275R\325\352\274O\226\275\275{vg>%\0036=\334\360\003\275\255\030\\=[5\237=v\374Q;\021\325\245\275a6\254\274\365\344\202=\307>\201\275\024<\246\273x\245==K1\030=\227\034\351\275Y\232Y=!\025\237<\222\007\231=\023=*\275\232\274\310\2754\324Y=L\032\230<\227\230\222=c\003\031>P\374\334\274\240\352\217</\235\263;y\223\320\275\006\320\210\275\005R?=h\010n\275\310/X\275\303.\245\275\017\317[<\316\321\024\275h\275\316=\300\030\360\275R\267^\274\214\245:=\341\0070\275\367\241\337\274\346\2722<\311o\026\276\200\3701\273\365\340\275\275 $e\275\347\360\215>\210\316\001\274\271\316|\274\357l\215=\310\240\035=\002\345\013\276\263\327\257<`\367/\273T\177C=\335g\231\273\033\014\205<\234\344\367\273\342\030\252=>\244\331\275\014\234\223\275h\021\214=d\354\376;\303H\213\273\0175\262\275\214\224\256\275]\304\321=K\320n\274+\377\227\274\321\177\023=\331\347%\275\250Pi=\370O\307=\351\310\200\275\210H\314\275\242(\321=\263\376\016\274\315*@\275\360\206\377\275\262\355\326<}\025\003\275\037/k\275\336|\314\273\\b\342=U\315s\274\032[\"\275A\334M\273D\031\005\2756\226\030\276\n\266\327\275F\025w;g\331\253\275\037\361q\274\324z\301<\365%\027=\3239U=~\n\363\274\347\277\027<\223\276L=vBD<:\241\237=\267\016\001>\207#n=\005V\372\275B\362\232\273\325\270)=\250\001Z=(bB\274\204\266\363\272\277\306<\275\250\"\215\274\204~$=\037?`\275|\032\311\275\273\3655<\026\370K<\t\032\337:\345\357\310=\253\262w\272\230BO\274i\002z=/\356R<\014\315\374\272\220\225(\275\346\231f\275Z7#\275\256\245G\273*\026\237=\"\245\351\275\370\206\340\274E\264\241\274\363\010\334=J\264$=\2770\353<\255\313\312\272\207\330\026=\2579\020=\227{\225\274\223[\315<:\342\257\275\206\002\014=\372K\374<\026\335^\275\310kE>\027\210\\\276\036\317P\276\020\266\370\274\220[.\276\375\005Q<\345\245\245=\313\243\226\274\270\266\335<\003\343\263=\365\242\272\274\212G\037:@V\000>\006?,=\006\013\212=2~6\275\261-e=P\rK\275\246%`\276\222\001\334=oay\274U\231u=TR[=_\351x\275K\273\336\275{\3135\275lG\202\274\325t\307=\311~\325\275\005\226\210;\200)\216\274$\377\257>D\302\334\275\241>m\275f\367\253\275\350\0227>\361i\212=\260\241\277\273\035y\333\274\2721\t<f\346\231=\314C`=.\263\244\275\312\303@=\020\356U;Hb\267\275\2260\353\275[\262\376<\327\032\021=~E\317<\361\232\301=\005NI=\177\265\355=N\303;\275\205\t\024\276\340Z\247=E\007\010=#\322\220\275\236\337\006\275P7#>8a\027<(\362d\275\337>\231>\267\332\242=k\033\201;\262\235L\275 \033\\\274_\225\332:`C \276Y\332\020>\256_\355\274\242\360,;\025\312\302;;Re\275\236\245\304\275\247\177\010=\326\n\217\274.\371\210=[\r\240=f\242\260\274=\355\253\272\254\216\301\274f\251\246\275@v\225=\250\213u>\rt\n\275\\\344\231\2718\303\233\274\351@\247=Nk\006\275\024,